{
    "ä¸Ģåį·": 120200,
    "Ġbir": 15606,
    "Ġlouder": 62896,
    "chosen": 64175,
    "ĠÅ¾elez": 120126,
    "Ġtechniques": 12823,
    "ÅĻÃŃt": 120866,
    "Lov": 88386,
    "ĠEnvironmental": 25027,
    "å¥¶": 118593,
    "Ġranges": 21986,
    "ĠNotices": 96353,
    "Advertising": 73131,
    "Ġ:-Ċ": 63444,
    "Ġresurrection": 62532,
    "Ġsamples": 10688,
    "ĠÐºÐ½Ð¾Ð¿": 86049,
    "/\",Ċ": 36175,
    "Ġazi": 75162,
    ".Publish": 85035,
    "ĉglobal": 19373,
    "ĠChuck": 34349,
    "ĠInterpret": 73177,
    "Ġindicator": 21070,
    "-dat": 94097,
    "Ġ'|'": 85739,
    "Ġchoices": 11709,
    "assistant": 78191,
    "Ġespa": 36711,
    "used": 2656,
    ".If": 34001,
    "(strict": 39027,
    "ĠDÃ¼ny": 125282,
    "Office": 24861,
    "magic": 38551,
    "ecer": 94218,
    "ĠÐ¾ÑģÐºÑĸÐ»ÑĮÐºÐ¸": 118658,
    "series": 20473,
    "issan": 34197,
    "ooter": 9945,
    "/fast": 93451,
    "send": 6820,
    ".shop": 39846,
    "omial": 21524,
    "ĠMezi": 124218,
    "ĠÑĤÐ°ÐºÑĸ": 111742,
    "UMAN": 68665,
    "ĠnÄĽmu": 124326,
    "OMBRE": 63111,
    "_cm": 44719,
    "Ġnesting": 67810,
    "ĠLock": 16076,
    "ĠAfrica": 10384,
    "ĠDiamond": 25328,
    ".ItemsSource": 80537,
    "ĠÎĺÎµ": 110977,
    "emme": 97692,
    "ĠéĽĨ": 122973,
    "ĠCovers": 71525,
    "Ġunthinkable": 96603,
    "_Value": 28967,
    "Ġparking": 13217,
    "_KHR": 89628,
    "Ġacidity": 98026,
    "Ġactually": 3604,
    "å°ļ": 109461,
    "Ġverses": 50399,
    "ismo": 17434,
    "ĠÑĤÐ°ÐºÐ¾Ð¼": 123613,
    "ĠJComboBox": 88749,
    "ĠÙ¾Ø³": 103404,
    "graf": 77139,
    "ymology": 99174,
    "Ġdefensively": 83080,
    "(Sender": 34513,
    "æıĲåĩº": 118664,
    "ĠPS": 11659,
    "HttpGet": 30874,
    ".Butter": 98472,
    "beh": 30998,
    "clazz": 84014,
    "æŁ´": 127686,
    "Ġlup": 99889,
    "Ġoper": 2040,
    "Ä°ng": 124798,
    "Ġà¤¸à¤®à¤¯": 103483,
    "Â¾": 68496,
    "ÑĦÐ¸ÐºÐ°": 113092,
    "ç´¹ä»ĭ": 126362,
    "Ġgonna": 16926,
    "ENO": 64462,
    "à¸±à¸ķà¸£": 107012,
    "capture": 46170,
    "}\\\"": 47969,
    "assignments": 97410,
    "write": 5040,
    "licensed": 72811,
    "Launcher": 92276,
    "ny": 3919,
    "semblies": 46438,
    "=res": 79470,
    "ĠOPERATION": 99784,
    "ahoo": 17397,
    "oluciÃ³n": 78176,
    "Å¡ÃŃm": 104021,
    "ĠBT": 21795,
    "638": 24495,
    "ya": 7911,
    "Ġbesie": 92728,
    ".crypto": 45223,
    "Ġldc": 33106,
    ".Ch": 6487,
    "ĠØ§Ø®ØªØµØ§Øµ": 125814,
    "resident": 40631,
    "ĠPOR": 58970,
    "Really": 49885,
    "ÎķÎĽ": 108961,
    "Ġanus": 82408,
    "Ġproven": 17033,
    ".gui": 30429,
    "Ġlique": 93542,
    "receiver": 38653,
    "ulus": 19990,
    "Ġspep": 70336,
    "Ġlearners": 53243,
    ".getRow": 51293,
    "ĠCulture": 21023,
    "ĠLinkedList": 23767,
    "ĠcombineReducers": 59043,
    "[r": 16523,
    "ĠSubmitted": 72989,
    ".setTextColor": 47832,
    "\">\\": 76297,
    "à¸Ļà¸§à¸¢": 120884,
    ".getLocal": 67041,
    "(sm": 56380,
    "íĺ": 35859,
    "acl": 48836,
    "Ġtrá»±c": 105003,
    "_WORDS": 89521,
    "ĠRailway": 55556,
    "pl": 501,
    "ĠÐ¿ÑĢÐ¾Ð±Ð»ÐµÐ¼Ñĭ": 118194,
    "Ġsimulations": 47590,
    "ÏĩÎŃÏĤ": 125245,
    "resultSet": 72551,
    "Ġbitmap": 20327,
    "))/(": 68095,
    "owania": 57129,
    "ĠMQTT": 62524,
    ".Content": 12900,
    "//-----------------------------------------------------------------------------Ċ": 45242,
    "[count": 28637,
    "ĠExpires": 98510,
    "ĠNicole": 45130,
    "Ġdnes": 108766,
    "_ABI": 88074,
    "TreeNode": 27695,
    "æĤł": 116511,
    "Sun": 31192,
    "_SYSTEM": 31267,
    "ĠCumhuriyet": 118972,
    "à¸Īà¸£": 105853,
    "ĠJonas": 69186,
    "ĠçĤ": 107142,
    "=pos": 100238,
    "ÑħÑĸÐ²": 109201,
    "âĢĲ'": 127354,
    "Ġelectr": 43906,
    "Ġwheels": 23529,
    "eax": 41244,
    "TeV": 99244,
    "ĠCarlos": 30397,
    "Ġyelled": 56177,
    "Ġinspires": 70390,
    "Viet": 95154,
    "YP": 10158,
    "webtoken": 65936,
    "Ð¼Ð¸": 64880,
    "ĠKop": 59109,
    "Ġpersonne": 54613,
    "Ġcentury": 9478,
    "Ġ~~": 78877,
    "ĠBut": 2030,
    "Ð»Ð¸Ð²Ð¸Ñħ": 124444,
    "ĠÐŁÐ¾Ð¼": 116869,
    "æħ¶": 118090,
    "Ġì¹¼": 120231,
    "ĠAry": 87410,
    "à¤¿à¤¹": 105342,
    "ick": 875,
    "[n": 7824,
    "Suit": 63998,
    "íĸī": 101066,
    "æº": 36117,
    "op": 454,
    "ĠbaÄŁÄ±r": 120302,
    "Ġkin": 24890,
    "ĠØ¯Ùħ": 112302,
    "ĠlÃ£i": 121114,
    "ĠØŃØ³ÙĨ": 111380,
    ".submit": 28021,
    "uzu": 87425,
    "Ġzajist": 122439,
    "Ġrenovation": 50555,
    "(login": 32687,
    "<|reserved_special_token_153|>": 128161,
    "BoundingBox": 67140,
    "Ġautomatic": 17392,
    "Ġreminds": 35710,
    "@SpringBootTest": 74316,
    "ä¸ĸç´Ģ": 126241,
    "Äįem": 112982,
    "=\"\\": 51179,
    "Ġë¶Ģ": 86503,
    "Ġtoxicity": 58011,
    "Ġiter": 5480,
    "Ġpixels": 16128,
    "çĴ°": 108476,
    "Ġtransporter": 73565,
    "ĠClassNotFoundException": 66741,
    "Ð¼Ð°": 69463,
    "Ġtá»Ļc": 114227,
    "(Float": 58278,
    "celik": 114550,
    "ĠÐŁÐ¾Ð´": 105949,
    "i": 72,
    "Constants": 9571,
    "ãĤ¤ãĤ¯": 125596,
    "ĠÑģÐ¸Ð³": 114669,
    "å®ŀéĻħ": 115827,
    "Ġà®": 71697,
    "Insn": 27192,
    "Ġservo": 59412,
    "ĠFully": 49256,
    "Ġopinions": 18463,
    "_VECTOR": 49093,
    "ÑĢÐ¾Ð²": 24803,
    "gh": 876,
    "alous": 30543,
    "Ø²Ø§Ø¯Ùĩ": 121269,
    "Ġdonc": 39587,
    "lÃ¤": 44283,
    "\"My": 46240,
    "Ġcla": 87804,
    "ĠÑįÑĦÑĦÐµÐº": 115031,
    "(primary": 74359,
    "They": 7009,
    "starter": 32474,
    "Ġnests": 96221,
    "ĉtb": 63942,
    "/animate": 89383,
    ".Movie": 64144,
    "à¸±à¸Ĵà¸Ļ": 105042,
    "Ġexecute": 9203,
    "ĠLaws": 42089,
    "ĠnewVal": 73428,
    "action": 1335,
    "Ġjoin": 5249,
    "ulsive": 58921,
    "})();ĊĊ": 95445,
    "Plan": 21119,
    "ĠserialVersionUID": 24598,
    "ĠÐ·ÐµÐ»": 119327,
    "::_('": 36510,
    "arts": 7183,
    "sync": 13293,
    "åŃĹå¹ķ": 118370,
    "Ġbillions": 33151,
    "Ġpelic": 76433,
    "YSTICK": 96896,
    "(subject": 30228,
    "Ġbrowsing": 32421,
    "Ġperf": 22535,
    "à¤ıà¤¨": 125423,
    "Ġsuicidal": 66153,
    "ĠComput": 24019,
    "Ġdelay": 7781,
    "ĠProt": 11970,
    "ĠPRIVATE": 58893,
    "Ã§os": 49019,
    "Ġpanc": 54574,
    "MASK": 50963,
    ".stride": 93735,
    ".second": 13872,
    "mh": 53016,
    "licit": 6154,
    "Ġceremony": 22260,
    "fait": 64965,
    "(signal": 57882,
    "OUND": 13891,
    "fiction": 58162,
    "hardt": 60382,
    "ĠHear": 57199,
    "vod": 92110,
    "Ã¼mÃ¼zde": 118033,
    "ĠÙħØ®": 104362,
    "Ġmango": 70368,
    "\\Twig": 82435,
    "ĠÎ½ÎµÏĨ": 112473,
    "PÅĻi": 123928,
    "ĠMEDIATEK": 51809,
    "ĠvÅ¡em": 121788,
    "ĠSteele": 57493,
    "ĠClothing": 54758,
    "Configuration": 7843,
    ".community": 91528,
    "Ġmilitary": 6411,
    "Ġremoves": 29260,
    ".oauth": 58873,
    "ĠØ£ÙĬØ¶Ø§": 115030,
    "Ġcour": 2126,
    "ĠÙĦÙĥØ±Ø©": 125451,
    ".pivot": 96868,
    "Ð¸Ð½Ð¾Ð¹": 117637,
    "asyarak": 91422,
    "high": 12156,
    "Ø§Ø¨Ø·": 105086,
    "ĠÐ±Ð¾Ð³": 115576,
    "-facebook": 54687,
    "Javascript": 65667,
    "ĠProdukt": 70442,
    "ĠEnrique": 85130,
    "ĠgetUrl": 69119,
    "ĠyaptÄ±k": 117592,
    "(board": 21433,
    "SJ": 98589,
    "(IT": 89133,
    "ĠÏİÏģÎ±": 124223,
    "qv": 70678,
    "ĠKing": 6342,
    "ĠServ": 27318,
    "abin": 9068,
    "('../": 11219,
    "_ot": 66714,
    "SZ": 62328,
    "ĠPager": 88408,
    "_dd": 44274,
    "Democratic": 90999,
    "_COUNT": 15014,
    "Ġedt": 81814,
    ".wrapper": 63515,
    "Ġgarant": 40192,
    "ĠmainScreen": 67506,
    "Ð´Ð°": 40590,
    "aney": 82286,
    "ĠNRA": 53509,
    "Ġrefuge": 14850,
    "Authority": 46632,
    "kanÄ±": 104947,
    "combine": 64236,
    ".shader": 93761,
    "Ġtranslucent": 85364,
    "agnet": 64333,
    "psilon": 60992,
    "ĠolduÄŁundan": 124445,
    "lies": 49201,
    "Ġzest": 81631,
    ");\">Ċ": 95005,
    "Ġprevious": 3766,
    "ĠÐºÑĢÐ°Ñģ": 105712,
    ".timer": 29851,
    "ackson": 19950,
    "Ġtemptation": 62461,
    "ê³ł": 35495,
    "ĠonData": 78762,
    "ãĢĤä¸į": 120234,
    ".\"),": 83915,
    "iker": 25840,
    "fid": 33539,
    "à¸´à¸ķ": 101267,
    "ÂĽ": 125997,
    "ÑĪÐµÐ¹": 107831,
    "ĠintÃ©ress": 92759,
    "ĠcountryCode": 91302,
    "Ġupon": 5304,
    "markup": 81927,
    "Ġknowledge": 6677,
    "omy": 5650,
    "(Return": 88674,
    "z": 89,
    "Liverpool": 93705,
    "}}</": 13107,
    "ĠQMessageBox": 42318,
    "Ġhue": 40140,
    "tables": 33210,
    "ĠStringBuilder": 11664,
    "(sid": 86864,
    "_CLICK": 53378,
    "ĠSorry": 33386,
    "ÅĻila": 127227,
    "ĠhandleChange": 39755,
    "ä¼Ļ": 111596,
    "Chef": 95003,
    "Ð¸ÑĤÐ¸Ð²": 121292,
    "Ġwannonce": 84676,
    "cfg": 14401,
    "ĠinitWithStyle": 91288,
    "à¸¹à¸ķà¸£": 119132,
    "à¸ģà¸³à¸¥": 112746,
    ".progress": 29027,
    "ĠHyundai": 60940,
    "Ġimpartial": 68824,
    "_allocated": 83442,
    "Ġcarta": 76647,
    "Ġshrinking": 63185,
    "Observable": 33544,
    "_row": 8698,
    "Ġcrunch": 42834,
    "\"\",": 57423,
    ".unlock": 48281,
    "ĠSpencer": 36221,
    "Ġlugares": 93924,
    "(Property": 60304,
    "ussian": 15950,
    "ĠWorksheets": 77279,
    "Ġempresa": 33864,
    "Ġuso": 35010,
    "allax": 45268,
    "earable": 77958,
    "Ġmargin": 4850,
    "\\L": 76238,
    "ĉRun": 87052,
    "éģº": 115514,
    "ĠUpdated": 16459,
    "isas": 87034,
    "ĉreload": 92843,
    "Infinity": 46190,
    "Ġrecounted": 89591,
    ".getItemId": 57484,
    "_errors": 20808,
    "_FILL": 62100,
    "_saved": 54809,
    "ÙĲÙĬÙĨ": 124236,
    "ê³¡": 108047,
    "Ġnewcomers": 68558,
    "emption": 34206,
    "å½¡": 107288,
    ".RIGHT": 53025,
    "ĠTrinidad": 86230,
    "(sf": 34904,
    "Ġaprove": 88901,
    "ston": 7876,
    "Ġtas": 52314,
    "ĠapiUrl": 89331,
    "Ġvoks": 93513,
    "ĠÐ²Ð¸Ð²": 114242,
    "Ġ(?,": 65085,
    "bbb": 54251,
    "ĠCorp": 22621,
    "ĠLoggerFactory": 36186,
    "Ġpuss": 84800,
    "PARSE": 97555,
    "---------Ċ": 29547,
    "å¹¸ç¦ı": 125098,
    ".JLabel": 17630,
    "Ġoccasional": 28961,
    "ëĵľë¦¬": 124365,
    "Ġgrab": 11894,
    "getIndex": 97034,
    "Ġelastic": 36573,
    "äººæ°ĳåħ±åĴĮåĽ½": 118514,
    "RAFT": 55058,
    "}`": 5658,
    ".edge": 55366,
    "ĠUIPickerView": 93331,
    "è¶ħè¿ĩ": 121150,
    "Ġstrike": 13471,
    "isÃŃ": 107196,
    "gsub": 95648,
    "renc": 63934,
    "ĠíļĮìĤ¬": 127798,
    "Ġtiny": 13987,
    "ĠNA": 21317,
    "_FA": 19598,
    "Î¸ÏģÏī": 122821,
    "Ġwis": 19112,
    "trand": 95674,
    "Ġtutor": 26370,
    "Ġæ©Ł": 125528,
    "Ġkcal": 96103,
    "ìĬ¤íĨł": 123642,
    "Ġpredictor": 62254,
    "_formatter": 75065,
    "\\Collections": 81005,
    "Ġwidow": 57896,
    "Ġwaterfront": 70027,
    "ãĢĤä»Ĭ": 125939,
    "Ġladies": 23628,
    "ency": 2301,
    "íļ¨": 111966,
    "Pont": 95456,
    "Ġdownwards": 92370,
    "Ð´Ð°ÑĤ": 109238,
    "ĠÑĢÐ¾Ð¼": 112029,
    "ĠãĥĿ": 117082,
    "ĠPla": 118945,
    "ĠÐ½Ð°Ð²Ñĸ": 106774,
    "Ġdeduction": 39943,
    "ãĤĮãģ¦ãģĦãĤĭ": 115032,
    "Ġ'<%=": 96195,
    "ĠRuntimeError": 45643,
    "\"id": 29800,
    "CBC": 71072,
    "ĠClo": 19197,
    "ĠWWII": 61130,
    "Ïį": 100315,
    "_OPTION": 20564,
    ".='": 84755,
    "opor": 89766,
    "},čĊčĊ": 84079,
    "kits": 90517,
    "ĠÑģÐ²ÐµÑĢ": 115811,
    "Ġkvinn": 51073,
    "à¸¸à¸ª": 125230,
    "çĽ¸ä¿¡": 122388,
    "Ġkork": 110693,
    "ÎĽ": 100993,
    "Ġswath": 93512,
    "Ġhysteria": 98766,
    ":\\": 7338,
    "Ġsola": 96189,
    "andaÅŁ": 112996,
    ")))ĊĊĊ": 84909,
    "ÙĨØ¯Ùĩ": 101118,
    "á¼": 101814,
    "Ã³c": 103400,
    "ĠAN": 2147,
    "Ġinterruption": 75103,
    "-google": 63745,
    "eng": 833,
    "Ġbajo": 63512,
    "-rate": 44126,
    "æĦŁ": 99750,
    "ÑĥÑİÑĤÑĮÑģÑı": 107516,
    ".INPUT": 82914,
    ".React": 62745,
    ".liferay": 37801,
    "ĠBuddhist": 47841,
    "ĠULONG": 31776,
    "aller": 14283,
    ".templates": 77207,
    "ĉim": 55992,
    "æĿĲ": 103234,
    "Ġsaying": 5605,
    "ĠìĿ½": 118151,
    "Ġosob": 72757,
    "èĬĤçĤ¹": 93474,
    "ĠTrails": 94841,
    "Ġë¶Ħìķ¼": 127290,
    "ĠWe": 1226,
    "vari": 30265,
    "_solve": 87346,
    "_cond": 25437,
    "Ġbladder": 62564,
    "idable": 37854,
    "Ġtransmissions": 92096,
    "BUF": 44931,
    "Ġnodded": 36065,
    "('${": 91248,
    "Final": 19918,
    "Ġgiorni": 86830,
    "Ġpray": 24739,
    "ĠÏĥÏħÎ½ÎŃ": 119956,
    "ĠGood": 7839,
    "ĠXI": 54343,
    ".webkit": 57720,
    "Ġwenn": 22850,
    "_stamp": 54078,
    "Ġburner": 65819,
    "ĠkhÃ¡": 108255,
    "ĠPAR": 27173,
    "éĸ¢": 97518,
    "ĠÑģÑĤÐ¾ÑĢÐ¾Ð½": 120854,
    "ĠchÆ°Æ¡ng": 107413,
    "ClassName": 14883,
    "ãģķãĤĵãģ¯": 117940,
    ".pattern": 40209,
    "osc": 24366,
    "Ġtrout": 80827,
    "ĠcÃłi": 118848,
    "_FATAL": 62640,
    "ĠFriendship": 73169,
    "à¸Ĥà¸ĵà¸°": 117157,
    "-be": 15502,
    "Â§Ø·": 109676,
    "Ġsubclasses": 69283,
    ".walk": 52494,
    "Ġidentifiable": 72450,
    "WEEN": 45448,
    "Ġyani": 109901,
    "(O": 19792,
    "Dual": 86174,
    "Ġwaivers": 92000,
    "ĠãĤĤ": 121655,
    "ener": 804,
    "Ð´Ð¶": 102217,
    "ĠFamilies": 50556,
    "Ġemo": 94197,
    "ĠgetX": 76756,
    "Ġseul": 74206,
    "ĠSigns": 59124,
    "Ġeduc": 4834,
    "ĠTRACE": 38619,
    "Ã¡tek": 110144,
    "Ġvacations": 75667,
    "Ġlibertarian": 57125,
    "ĉERR": 90575,
    "ãĢĤï¼Ī": 59459,
    "Ġouter": 16335,
    "Ġmourning": 76350,
    "ĠSeb": 126901,
    "Ġsubscription": 15493,
    "(front": 90628,
    "Increased": 97941,
    "(notification": 55980,
    "ï¼ĵ": 34617,
    "ĠÐºÐ²Ð°Ð´": 126973,
    "Ġtobacco": 27531,
    "Ð±ÑĥÑĤ": 113951,
    "Ġinjured": 15902,
    "ĠÑĪÐ¸": 114090,
    "-pl": 33207,
    "-video": 42411,
    "Ġå¤ı": 122526,
    "Ġfakt": 67892,
    "Ġfou": 57625,
    "Ġseparated": 19180,
    "ĠLeader": 23896,
    "Ġzel": 115998,
    "(valid": 42629,
    "Ġassignment": 16720,
    "XS": 50598,
    "ĠÙ¾Ø§Ú©": 121289,
    "ĠCONT": 16511,
    "hir": 30728,
    "æħĭ": 107328,
    "ĠDollar": 43464,
    "-a": 7561,
    "_release": 25596,
    "*/čĊčĊ": 29670,
    ".JsonProperty": 75569,
    "ĠTony": 19036,
    "ĠVID": 85052,
    "Ġkannst": 66936,
    "Ġolab": 110404,
    "Ġvoiture": 81645,
    "culos": 79134,
    "OfType": 35796,
    "ĠgroupName": 66635,
    "Ġcommunicator": 87771,
    "Ġnoise": 12248,
    ".py": 7345,
    "ordova": 77263,
    "Ġaddition": 5369,
    "ĠBoulevard": 48540,
    "727": 23486,
    "LS": 7416,
    "Abb": 81319,
    "_far": 68613,
    "something": 34431,
    "ĠLebanese": 69345,
    "ĠTech": 17829,
    "rott": 47789,
    "SAT": 85333,
    "ÑģÑĤÐ²ÐµÐ½Ð½ÑĭÐµ": 115555,
    "092": 25221,
    "Ġdusk": 93985,
    "Ready": 19753,
    "-Oct": 93526,
    "_fps": 66263,
    "Ġngh": 100425,
    "æĺ¾ç¤º": 55121,
    "/cl": 57031,
    "Td": 97076,
    "èĮĤ": 122447,
    "Ġdiversas": 99383,
    "/videos": 74045,
    "Ġchallenge": 8815,
    "Ġà¤ħà¤°": 105374,
    "Ġhiá»ĩn": 100852,
    "Ġcumshot": 95727,
    "[N": 23015,
    "Ġlk": 80116,
    "Ġjmp": 91469,
    "ĠEug": 41159,
    "&#": 28977,
    "egov": 75287,
    "ICK": 10915,
    "Ġkinase": 82160,
    "ĠØ§ÙĦÙĪØ²": 121706,
    "éŁ³ä¹Ĳ": 121036,
    "ĠFeeling": 74658,
    "linkedin": 77270,
    "Ġaerospace": 78164,
    "Ġthá»Ŀi": 101227,
    "ĠëĤĺëĬĶ": 109275,
    "278": 16949,
    "Ġseulement": 71686,
    "_Record": 76429,
    "_pct": 72612,
    "ĠApplicationRecord": 55926,
    ".bz": 82474,
    "èĭĹ": 118416,
    "Ġannouncement": 17480,
    "Ġ\"->": 89820,
    "ĠÑħÐ»Ð¾Ð¿": 114023,
    "âĤ¬Ċ": 122585,
    "']\").": 36776,
    "ĠTE": 18793,
    "_recommend": 100184,
    "çĢ¬": 120354,
    "_picker": 69330,
    "ï": 171,
    "ëłĩê²Į": 107482,
    "ĠHISTORY": 62879,
    "ypical": 89215,
    "ĠGuide": 13002,
    "_rights": 99153,
    "_but": 87974,
    "ieg": 36110,
    "æĮĻ": 123680,
    "ĠAbdul": 52698,
    "ê¸¸": 106103,
    "Ġautor": 27865,
    "ĠÙħØ±ØªØ¨": 112801,
    "åįĥ": 103633,
    "ĠEns": 58968,
    "Ġscient": 7330,
    "Ġsend": 3708,
    "ereo": 65953,
    "onn": 27476,
    "sÃŃ": 104598,
    "Î¹ÏĥÏĦÎ·": 123427,
    "Ġusted": 61395,
    "/\"": 11474,
    "lk": 42848,
    "ï¼ĸ": 60596,
    "investment": 97112,
    "chemes": 67446,
    "(@\"": 11181,
    "Ġrunning": 4401,
    "_gid": 73993,
    "_comm": 26207,
    "ĉĠĠĠĠĠĠĠĠĠĠĠĠĠĠĠĠĠĠĠ": 35613,
    "Ùĥ": 32173,
    "Ġcompr": 13550,
    "ĠBÃł": 124297,
    "Ġrack": 30759,
    ".IMAGE": 95576,
    "Balancer": 94925,
    "oÅĻ": 109143,
    "ĠretVal": 35830,
    "Ġdf": 6907,
    "Ġyouth": 12822,
    "ĠFisher": 36604,
    "(ht": 74492,
    "Ġnemovit": 126616,
    "PixelFormat": 99909,
    "ucken": 98090,
    "Ġnarcotics": 92152,
    "Ġmadde": 118153,
    "ĠSacramento": 41334,
    "à¸·à¸Ńà¸Ĥ": 127858,
    "ĠTracks": 65840,
    "åĮ»çĸĹ": 125044,
    "Formula": 53776,
    "ought": 2509,
    "itant": 52044,
    "*>(&": 67263,
    "uela": 24669,
    "Ð³Ð¸": 101807,
    "à¸ķà¸¥à¸²à¸Ķ": 115632,
    "<tag": 17224,
    "æĺ¨": 118288,
    "è®¨": 112962,
    "âĹıâĹıâĹıâĹıâĹıâĹıâĹıâĹı": 110188,
    "ë³´ê¸°": 108728,
    "Ġï¼ı": 101110,
    "oÄŁunluk": 118677,
    "Ġanswers": 11503,
    "ĠCheng": 57807,
    "çķ": 40198,
    "ĠFoam": 77556,
    "Ġprem": 6954,
    "Ġprevents": 29034,
    "nosti": 74952,
    "ĠOnClickListener": 68407,
    "\"/><": 77042,
    "(Build": 19734,
    "GPS": 64276,
    "ROUND": 23769,
    "Ø§Ø·": 100837,
    "ĠâĢ¯": 112745,
    "optim": 19680,
    "èĤ¥": 117178,
    "ĠPistons": 95808,
    "ĠtÃ³c": 113654,
    "ĠDaughter": 64394,
    "ĠMcDon": 72674,
    ".Native": 69724,
    ".mit": 85834,
    "BaseUrl": 72687,
    "-pill": 89487,
    "æ±Ł": 70277,
    "ĠCod": 34777,
    "ĠNONINFRINGEMENT": 29086,
    "serir": 99587,
    "à¥ĭà¤¹": 106269,
    "house": 7830,
    "Ġobrov": 125490,
    "erez": 34886,
    "Ð¿Ð¾Ð²ÑĸÐ´": 102105,
    "={`/": 56341,
    "(In": 48714,
    "ACTION": 42995,
    "Py": 14149,
    "Ã³mo": 72561,
    "\";čĊ": 3618,
    "ĠÑıÐºÐ¸Ð¹": 103508,
    "ĠTrip": 27852,
    "ç·ļ": 101911,
    "ĠScaling": 89101,
    "Ġsalle": 71632,
    "Pay": 21243,
    "habit": 97802,
    "Ġmcc": 74947,
    ".DATE": 49489,
    "atable": 15436,
    "ĠAABB": 89680,
    "Ġlakes": 44236,
    "Î¼Î¿Î½": 114106,
    "ĠBroncos": 42694,
    "ervlet": 4663,
    "#/": 70567,
    "ÑĢÐ°Ñī": 52866,
    "Ġappoint": 9732,
    "Pod": 24434,
    "'Connor": 86265,
    "Strike": 73419,
    "ĠÎ©": 117336,
    "çĭ¼": 122099,
    "'https": 87668,
    "Ġgenerado": 80734,
    "pname": 83762,
    "ãĥ³ãĥĢ": 108506,
    "_creator": 69632,
    "Î³ÏģÎ±ÏĨ": 104339,
    "_REALTYPE": 57361,
    "JPEG": 74703,
    "ĠinputValue": 81008,
    "ynamic": 5148,
    "-To": 59408,
    "Ġtv": 11333,
    "_Enable": 66316,
    "=array": 25546,
    "Successfully": 37059,
    "Ġdubious": 63189,
    "_terminal": 65409,
    "ĠØ§Ø¨ÙĨ": 108592,
    "ãĢĤèĢĮ": 117175,
    "ĠsvÄĽ": 107549,
    "tweets": 80821,
    "criteria": 21159,
    "egan": 16133,
    "èĢĥèĻĳ": 124116,
    "ĠGetMessage": 95329,
    "ĠÚĺ": 104075,
    "}:{": 59246,
    "evÅ¡ÃŃm": 110458,
    "Ġexpanded": 17626,
    "Ġindef": 37527,
    "ĠÐ¿ÐµÑĢÐµ": 104642,
    "éłĤ": 115962,
    "Rom": 45459,
    "Ð½Ð°Ð¹": 112349,
    "Ġ\"#{": 23299,
    "ĠASUS": 75770,
    "Ġunderstandably": 88098,
    "acker": 9881,
    "ĠØ¯ÙĨ": 113045,
    "ÏĬÎº": 124896,
    "ĠÙĥØ±Ø©": 112326,
    "endpoint": 33640,
    "UV": 23042,
    "_transport": 47498,
    "ĠOutstanding": 76441,
    "(colors": 60254,
    "ĠRos": 16870,
    "Ġurlencode": 59791,
    "Ġvoll": 57454,
    "/if": 92283,
    "oÄŁun": 106501,
    "åĪĽæĸ°": 122705,
    "Ġinterceptions": 73557,
    "Ð¾ÐºÑĢÐµÐ¼Ð°": 114581,
    "Ġpruning": 86292,
    "Ġthumb": 25015,
    "Ġcontrary": 26102,
    "igu": 27843,
    "ĠAddition": 79746,
    "ammad": 54496,
    "áº¡o": 89416,
    "Ġæ®": 121882,
    "_SW": 23638,
    "ĠFilter": 12619,
    "Ġgamm": 86942,
    "çĽĳåĲ¬é¡µéĿ¢": 65053,
    "ĠLindsey": 65379,
    "Ø§ÙĦÙĬ": 102967,
    "Î¤": 100548,
    "Ġhire": 18467,
    "ĠJuni": 81257,
    "Ð°Ð»ÑĸÑģÑĤ": 121401,
    "åĮ¹": 116298,
    "_tbl": 35672,
    "uncio": 67144,
    "Ġgates": 35634,
    "ĠART": 34979,
    "Ġaltitude": 36958,
    "ãĥĥãĤ«ãĥ¼": 125135,
    "ĠForum": 17997,
    "Ġdespre": 87725,
    "(zone": 75328,
    "ĠeriÅŁ": 122145,
    "Ġrestless": 89358,
    "Matching": 65530,
    "ĠMediaTek": 86002,
    "Ġtá»Ļi": 113206,
    "ĠTurnbull": 68946,
    "_IRQHandler": 76044,
    "agon": 6241,
    "WF": 33231,
    "ĠLouise": 56578,
    "_CBC": 91864,
    "Ġemployed": 20011,
    "Syn": 38234,
    "iciente": 66780,
    "Ġabbiamo": 95396,
    "Ġzusammen": 54483,
    "ĠÐ¿Ð¾Ð²": 96034,
    "Ġhiá»ĥn": 122680,
    "ĠÙĩÙĨØ±": 118840,
    "Const": 19717,
    "Ã¼t": 29758,
    "-shopping": 79542,
    "las": 14833,
    "Ġfares": 70318,
    "ÐµÐºÑģÑĥ": 124312,
    "native": 30838,
    "Beer": 90328,
    "AMERA": 89009,
    "æĪı": 104625,
    "Ġrecording": 14975,
    ".addAction": 17849,
    "obody": 43440,
    "PÅĻ": 117047,
    "ĠMÃ¶": 49782,
    "_perf": 77876,
    "')}}\">": 65922,
    "ĠDod": 36968,
    "ĉstrcat": 52217,
    "ĠÅĻ": 101259,
    "CodeGen": 25691,
    "ugi": 51640,
    "ä»ĭç»į": 117814,
    "+\"/": 28669,
    "ĠmÃ©todo": 58609,
    "Ġê±´": 103521,
    "Gl": 32641,
    "moil": 61147,
    "++;čĊ": 14237,
    "_ĊĊ": 19327,
    "ãĥ³": 16073,
    "Loader": 9360,
    "Ġdesires": 32097,
    "Ġkuru": 123528,
    "ĠpaddingLeft": 55291,
    "Ġzenith": 99529,
    "ĠÐ¿ÑĢÐ¾ÑĦÐ¸Ð»Ð°ÐºÑĤÐ¸": 127024,
    ".open": 5949,
    "ĠìĦ¤": 58952,
    "ĠÙħØ§Ø´ÛĮÙĨ": 111446,
    "ĠTreasure": 58248,
    "ë¦¿": 119357,
    "ensch": 47845,
    "IFICATIONS": 78679,
    "ourmet": 51802,
    "Ġvelk": 107607,
    "ĠPerez": 50465,
    "ä¸ļ": 42052,
    "Ġciting": 33264,
    "ScrollView": 30197,
    ")','": 71173,
    ".Type": 10394,
    "à¥ĭà¤ļ": 110062,
    "Ġfamily": 3070,
    "obutton": 83477,
    "æķ°éĩı": 82900,
    "_HEIGHT": 17807,
    "Ġgent": 16265,
    "ĠãĥĹ": 109887,
    "ĠÐ¿Ð¾Ð»ÑĮÐ·Ð¾Ð²Ð°ÑĤ": 46395,
    "Ġbrilliant": 20333,
    "ĠÙĤÛĮÙħØª": 105837,
    ".CG": 92758,
    "GER": 8912,
    "ene": 1994,
    "ÐµÐ»ÐµÑĦÐ¾Ð½": 127222,
    "pheres": 65733,
    "}/#{": 96116,
    "_KEY": 6738,
    "ĠPeb": 90005,
    "Ġbanda": 97211,
    "<|reserved_special_token_161|>": 128169,
    "#=": 57043,
    "ÐºÑĥÐ»ÑĮ": 116925,
    "Ð¾ÑĩÐ°ÑĤÐºÑĥ": 125549,
    "ĉloc": 72228,
    "ĠWorkshop": 36202,
    "Ġloser": 59991,
    "Ġcong": 99898,
    "ĠØ§ÙĦØªØ¹ÙĦÙĬÙħ": 123720,
    ".hd": 99776,
    "Flush": 47974,
    "ĠBuyer": 62178,
    "ĠsayÄ±da": 119601,
    "Ġnestled": 89777,
    "_RW": 61918,
    "[id": 14839,
    "Ø§ÙĦÙģ": 110542,
    "åĢī": 114035,
    "ĠÎ½ÎŃ": 114728,
    "Ġdest": 3281,
    "æķĻèĤ²": 104378,
    "-ap": 46256,
    "jom": 61318,
    "Ð²Ð°ÑĤ": 105495,
    "ÐµÐ½": 5372,
    "Ġvideog": 89117,
    "PosY": 77398,
    "Ġdisplacement": 44153,
    "itarian": 20631,
    "ĠNeutral": 59794,
    "Ġepid": 28817,
    "ĠAssetImage": 93306,
    "ĠØ¹Ø±Ø¶Ùĩ": 126977,
    "CDATA": 55102,
    "ĠAÄŁ": 107006,
    "è§Ĵ": 64936,
    "ultureInfo": 54028,
    "orang": 85268,
    "(con": 18350,
    "ĠÑĢÐ¾Ð»ÑĮ": 112549,
    "èªł": 124097,
    "Ġtechnology": 5557,
    "çıŃ": 104615,
    "ACE": 5693,
    "DISPLAY": 69227,
    "Ġlid": 27431,
    "[]);Ċ": 57803,
    "à¤¿à¤«": 109721,
    "à¸Ĥà¸Ńà¸ĩà¸£": 127247,
    "Ġ'%'": 67076,
    "ç»§ç»Ń": 114638,
    "ISIS": 78065,
    "Ġ'''": 11712,
    "Ġmutating": 97618,
    "ĠjÃ¡": 33192,
    "/grpc": 97147,
    "ë¦Ħ": 64254,
    "Ġ=========================================================================": 39468,
    "Until": 25503,
    "Location": 4812,
    "ĠØ¹ÙĨØ¯": 106167,
    "victim": 92039,
    "Ġgrief": 38384,
    "Ġoverthrow": 63331,
    "-esteem": 65906,
    "ĠÐ´ÐµÐ½ÑĮÐ³Ð¸": 125893,
    "ĠWikip": 119234,
    "ĠLowell": 96230,
    "jni": 80214,
    "352": 16482,
    "ĠStmt": 98123,
    "à¤¯": 100314,
    "ĠConcept": 35455,
    ".Update": 17103,
    "Ġpainful": 26175,
    ".bank": 57783,
    "unction": 600,
    "Ġrepresenta": 96215,
    "ĠViking": 65450,
    "ëĭ¹": 65895,
    "ĠHindus": 82729,
    "-category": 43958,
    ".Bean": 46633,
    ".FlatAppearance": 44720,
    "ĠCrab": 75204,
    "Ġpriesthood": 86716,
    "ĠÑģÐ°Ð¼Ð¸": 111266,
    "ĺèĽĽ": 114203,
    "ĠLow": 12310,
    "Ð°Ð»Ð¾Ð²": 120154,
    "ĠSolid": 22925,
    "ĠPerforms": 58816,
    "Ġrestaurant": 10960,
    ".AutoScaleMode": 19986,
    "Ġteam": 2128,
    "ĠBoone": 91695,
    ".weights": 58718,
    "_uc": 69987,
    "ĠGraphic": 45051,
    "ĠVaccine": 100058,
    "ĠØªØ§ÛĮ": 122729,
    ".Cond": 54520,
    "Unicode": 35020,
    "ULT": 3616,
    "etri": 94223,
    "Ø¢ÙĨ": 104106,
    "Ġrushes": 95322,
    "-token": 35941,
    "301": 12405,
    "_ARRAY": 18194,
    "imeo": 51988,
    "ĠTmin": 68523,
    "ĠÑģÐµÐ»": 124286,
    "ĠURL": 5665,
    "_sites": 69700,
    "\"Not": 82255,
    ".rest": 22113,
    "Ġnominate": 88400,
    "Ġ&#": 45633,
    "passed": 36522,
    "Ġgrass": 16763,
    "ĠverdiÄŁi": 116638,
    "Condition": 10770,
    "ĠAlarm": 47384,
    "Ġrelied": 41013,
    "ĠBeng": 26316,
    "ĠæĢ": 91576,
    "Ġformations": 62264,
    ",ch": 71097,
    ".ErrorCode": 99533,
    "_producto": 59528,
    ":::::::::": 109850,
    "mia": 91299,
    "ĠTwo": 9220,
    "ĠAzerbaijan": 74577,
    "Splash": 93758,
    "[Ċ": 9837,
    "®": 106,
    "Books": 25335,
    "ĠJerusalem": 26523,
    "ĠÙħØ·": 102190,
    ">}</": 79035,
    "Ġdum": 63811,
    ".creator": 80760,
    "[it": 58296,
    "_convert": 36010,
    "Ġ?>;Ċ": 99287,
    "ĠPATH": 27871,
    "-int": 20653,
    "efd": 94778,
    "()[": 10324,
    "season": 17217,
    "DialogTitle": 97553,
    "_CONN": 61476,
    "Ð¾ÐºÐ°": 74351,
    "ĠerrorMsg": 53347,
    "Ġwithdrawal": 30836,
    "-index": 22214,
    "uyla": 108102,
    "Ġcarcinoma": 89468,
    "Distance": 15121,
    "Ġeach": 1855,
    "Ø¶": 58959,
    "Ġfacet": 45607,
    "Ġobec": 110814,
    "Tro": 93555,
    "ĠÐºÐ»Ð°Ð´": 118902,
    "ÐµÐ¹Ð½": 115974,
    "Ġinternet": 7757,
    "ãģ®ãģ¯": 104468,
    "ĠçĻ¾åº¦æĶ¶å½ķ": 115058,
    "ĠPipes": 79823,
    "ĠBom": 48452,
    "terdam": 51229,
    "MW": 55273,
    "/misc": 78786,
    "ĠNico": 75135,
    "Ġdedication": 39955,
    "cek": 46800,
    "Ð±Ð¾ÑĤ": 100960,
    "NotEmpty": 28516,
    "yo": 16417,
    "Ġ'{{": 43642,
    "togroup": 83961,
    "Ġgl": 2840,
    "(border": 83546,
    "]\";Ċ": 60857,
    "OF": 12766,
    "ĠPaper": 18343,
    "Ġfix": 5155,
    "Ġfreelance": 46209,
    "ĠiÅŁlet": 112492,
    ".Controller": 30212,
    "ĠPo": 14128,
    "Ġboosted": 65208,
    "Ġmotivate": 62425,
    "ParticleSystem": 99554,
    "ĠPhoton": 63238,
    "Ġnie": 11568,
    "ĠRochester": 53468,
    "ĠintegerValue": 71713,
    "ĠErdogan": 57189,
    "vergence": 81848,
    "ãĤ¸ãĥ§": 113909,
    "ĠZemÄĽ": 126185,
    "Campaign": 63939,
    "æī§": 107904,
    "Ġnehmen": 81717,
    "Ġromantic": 24364,
    "ĠHigh": 5234,
    "ĠÏĥÎ·Î¼Î±Î½": 127683,
    "à¸±à¸Īà¸Ī": 110372,
    "()))": 10340,
    "use": 817,
    "ĠPan": 11233,
    "Ġresponders": 70639,
    "crire": 68019,
    "InputModule": 81333,
    "Ġplusieurs": 51854,
    "ÎµÎ¯ÏĦÎ±Î¹": 124906,
    "Ġtropical": 35148,
    "ĠÑģÐºÐ°Ð·Ð°Ð»Ð°": 113780,
    "530": 17252,
    "Ġanonymously": 73251,
    "Family": 15547,
    "lection": 1191,
    "tain": 23771,
    "jspx": 31577,
    ".Named": 58972,
    "urge": 40923,
    "ë¹": 102457,
    "-network": 57832,
    "Ġrn": 56939,
    "deployment": 83313,
    "ware": 1698,
    "Ġmesma": 95410,
    "ĠdÃ³": 77514,
    "ĠÑĤÑĸÐ»ÑĮÐºÐ¸": 104928,
    "ĠÐļÐ°Ð¼": 119335,
    ".Mapper": 72992,
    ".squareup": 68026,
    "'],$": 43187,
    "Ġskirt": 38380,
    "ĠÐ´Ð¾ÑģÑıÐ³": 115446,
    "variables": 19129,
    "asha": 31543,
    "ĉgit": 91831,
    "Ġdriven": 16625,
    "ivate": 736,
    "Elim": 42113,
    "ĠToastr": 91519,
    "ïº": 100992,
    "íĮĮ": 101508,
    "icaid": 32584,
    "Ġpotrze": 89450,
    "sus": 86521,
    "ose": 974,
    "Ġmis": 5906,
    ".setCharacter": 95219,
    "ĠConstitutional": 63285,
    "Ġracks": 66968,
    "ĠÐ¿Ð»Ð¾Ð´": 119916,
    "Imm": 51839,
    "udem": 88305,
    "Ġsafety": 7296,
    "Ġstrengthen": 20259,
    "_descr": 65722,
    "Python": 31380,
    "Î¿ÏħÎ»": 109499,
    "ĠWeekly": 34114,
    "ÐµÐ¼Ð¾": 112394,
    "panies": 17443,
    "})ĊĊ": 9000,
    "ÑĭÑĪ": 101667,
    "Ġ))": 12254,
    "Ġcommunicated": 59035,
    "52": 4103,
    "ĠÙĤØ±": 101354,
    ".codigo": 69355,
    "abcdefgh": 57847,
    "ĠDuc": 80873,
    "ĠEyes": 43096,
    "880": 19272,
    "ĠCookbook": 89303,
    "ĠItem": 5858,
    "Ġdecidedly": 77120,
    "_passed": 88505,
    "Ġneoliberal": 81568,
    "ĠSocial": 9983,
    "-âĢĲ": 108226,
    ",val": 52657,
    ".linkLabel": 83674,
    "ederland": 40455,
    "ĠDal": 29210,
    "ĠEmacs": 64576,
    "DataStream": 89162,
    "(ret": 16442,
    "ĠPlayStation": 32365,
    "Ġruthless": 69510,
    "ĠFAA": 67036,
    "MIC": 56061,
    "_LOW": 26916,
    "Ġsources": 8336,
    "HEME": 40532,
    "ĠVGA": 76456,
    "ĠUnless": 11115,
    "Ġà¤ħà¤Ĺ": 108736,
    "Ġmagician": 90441,
    "textBox": 40698,
    "ĠÐļÐ°Ðº": 107234,
    "Ġhello": 24748,
    "ĠÑĩÑĥÐ²": 108842,
    "Ġemerges": 59696,
    "ĠÑĤÐ°ÐºÐ¾Ð¶": 103025,
    "bt": 13045,
    "overn": 6846,
    "ĠVisit": 19545,
    "exampleModal": 59490,
    "Ġmáº·t": 102214,
    "ellido": 25087,
    "ĠÐ²Ð¸ÐºÐ¾ÑĢÐ¸ÑģÑĤÐ°Ð½Ð½Ñı": 113315,
    "_EXPI": 63106,
    "Ġbunun": 108189,
    ".getId": 11121,
    "Ġunc": 21482,
    "ĠFlames": 73297,
    "dda": 72587,
    "Ġfragment": 12569,
    ".DO": 69211,
    "Ġhashlib": 55595,
    "dÃ¼r": 102553,
    "ĠJung": 50432,
    "å¤§éĩı": 122333,
    "Ġbash": 28121,
    "ĠAddiction": 79790,
    "ĠHeading": 52449,
    "Ownership": 78266,
    "Ġcomplete": 4686,
    "Ġinland": 77289,
    "Ġlyrics": 24142,
    "Ġtamanho": 70338,
    "448": 19956,
    "Ġdanger": 8137,
    "Num": 4755,
    "ë²Į": 110452,
    "ìĿ´ë©°": 112373,
    "ĉsb": 25883,
    "udicots": 122621,
    "å°¤": 120308,
    "ĠHath": 91668,
    "Ġhai": 47151,
    "ĠPANEL": 81124,
    ".colorbar": 92433,
    "ĠØ§ÙĦØ£ÙħØ±": 122527,
    "Instruction": 17077,
    "chat": 9884,
    "ÑģÑĤÐ²Ñĸ": 118852,
    "TimeZone": 78886,
    "Ġsodom": 83737,
    "acyj": 96653,
    "Î²Îµ": 116427,
    "(ca": 83606,
    "Ġdestruct": 21443,
    "ĠÐ¾ÑĦÐ¸ÑĨÐ¸": 122869,
    "-family": 17633,
    ",x": 13095,
    "roat": 18283,
    "ĠProcess": 8773,
    "Respond": 66454,
    "attacks": 81210,
    "æ¨©": 112607,
    "Mode": 3720,
    "(Response": 49079,
    "Prod": 42379,
    "Been": 26158,
    "illac": 64387,
    "ĠATM": 47135,
    "Ġtf": 6543,
    "ãĢĤæĪĳ": 107030,
    "ĠInfect": 88911,
    "ä¹Ĺ": 110498,
    "ĠÐºÐ°ÑĩÐµ": 106234,
    "ĠRam": 15504,
    "ĠGong": 98475,
    "ĠÐ¹": 100532,
    "ĠIDC": 26049,
    "ĠÙħØ§Ø¯": 122122,
    "ĠJad": 73824,
    "ĠPhÃ¡p": 108361,
    "Ġaccuracy": 13708,
    "Ġarchitecture": 18112,
    "ĠÐ¿Ð¾ÑģÐº": 114558,
    "Ġalive": 13989,
    "ework": 2504,
    ".config": 5539,
    "ĠÐ¶Ð¸Ð·Ð½Ð¸": 107749,
    "github": 5316,
    "urg": 5673,
    "ivirus": 59013,
    "welcome": 35184,
    "Ø¤Ø§ÙĦ": 125299,
    "lÃ¡da": 117509,
    "Ø²ÙĦ": 107367,
    "ĠJensen": 65109,
    "Ġbog": 35519,
    "ÑģÑĸÐ¼": 117333,
    "ĠkInstruction": 93600,
    "Ġsongs": 11936,
    "ĠÐºÐ²ÑĸÑĤÐ½Ñı": 119749,
    "ĠÐ¿ÐµÑĢÐµÐº": 107661,
    "Camp": 34955,
    ".Theme": 70958,
    "Seeder": 54970,
    "\"\".": 70455,
    "yen": 77251,
    "Ġextremes": 69971,
    "Ġparliamentary": 44250,
    "_lowercase": 94229,
    "Ġ'../../": 6490,
    "103": 6889,
    "Ġ$": 400,
    "ĠAlg": 82299,
    ".INTER": 94647,
    "Ġwithheld": 77103,
    "Ġhá»į": 100501,
    "Banner": 44268,
    "/Open": 97762,
    "xFFFF": 14721,
    "ĠCPR": 77898,
    "åł¡": 114618,
    "Ġmultiplied": 56016,
    "Ġbuck": 22786,
    "clearfix": 33553,
    "Ġbenches": 79509,
    "Emergency": 80069,
    "Ġstub": 13947,
    "å°ĳå¹´": 113587,
    "uppies": 95847,
    "æľīäºĽ": 116372,
    ".stopPropagation": 43184,
    "Widget": 4651,
    "Ġassembler": 89624,
    "ĠEconom": 51183,
    "Ġbecame": 6244,
    "ĠëĨĢ": 115418,
    "898": 24809,
    "ĠSIMPLE": 92584,
    "ĠNews": 5513,
    "uchsia": 74491,
    "_de": 2310,
    "ÐµÐ½Ð½ÑĭÐµ": 105202,
    "-inverse": 75399,
    "æĲŀ": 123484,
    "ĠFig": 23966,
    "ĠwithStyles": 64410,
    "Ġuc": 26805,
    "Ġcraving": 64804,
    "hap": 38910,
    "Ġauctions": 71232,
    "ĠØ°ÙĦÙĥ": 104872,
    "ÄĻp": 64142,
    "ĠÑģÑĤÑĢÐ°ÑĪ": 119819,
    "';čĊ": 7722,
    "arian": 8997,
    "yeah": 76515,
    "_regex": 42932,
    "ĉfire": 71537,
    "ĠCEL": 91521,
    "ĠØ§ÙĦÙģ": 101292,
    "à¥ģà¤Ĺ": 109711,
    "CHANGE": 41973,
    "zas": 51455,
    "Ø§Ø¬Ùĩ": 110935,
    "Ġé¦¬": 122498,
    "ÐµÐ½Ð½Ð¾ÑģÑĤÐ¸": 107899,
    "ĠÐ¼ÐµÑħÐ°Ð½ÑĸÐ·": 127486,
    "æĽ²": 103302,
    "Ġshedding": 80417,
    "})čĊčĊ": 71741,
    "ĠÐŁÐ¾Ð»ÑĮ": 115506,
    "æľĢå¾Į": 114626,
    "ĠAssist": 54349,
    "Ġbeam": 24310,
    "Ġokres": 116724,
    "ĠLOOK": 50969,
    "/screen": 99090,
    ".toCharArray": 69980,
    "Ð¸Ð½Ð¾Ð²": 119120,
    "Ġfazla": 103328,
    "NET": 15734,
    "ir": 404,
    "(Db": 53269,
    "Is": 3957,
    "+N": 72822,
    "Ġrects": 83756,
    "lad": 18599,
    "_JUMP": 89830,
    ".er": 97973,
    "Î²Î¿Î»Î®": 123319,
    "ĠConditioning": 83492,
    "Ġbased": 3196,
    "Ġtablet": 21354,
    "gow": 37286,
    "ĠxÃ¡c": 103954,
    "ataloader": 71386,
    "á»£": 85400,
    "Ġë°ķ": 104293,
    "Ġherein": 36881,
    "ĠDeletes": 56624,
    "(station": 91330,
    "Ð¾Ð¿Ð¸Ñģ": 119616,
    "(queue": 35110,
    "Ġyog": 42453,
    "ĠìĬ¤íĬ¸": 123706,
    "Ġ<<=": 52278,
    ".currentIndex": 85093,
    "Ġreversing": 76283,
    "Ġtechno": 89999,
    "ÄĲT": 122014,
    "ĠCompound": 62672,
    "ĠFunding": 64815,
    "ĠIgn": 34881,
    "ĠViewing": 95157,
    "Ġconduit": 77635,
    "Ġsurreal": 65623,
    "Ã¼hr": 51853,
    "berger": 49120,
    "ĠØ¨Ø±Ø¯": 109244,
    "iving": 2299,
    "è³ĩ": 103087,
    "ĠModelo": 91618,
    "ĉREQUIRE": 88432,
    "ĠBK": 77882,
    "itution": 34790,
    "65": 2397,
    ";Ċ": 280,
    "ĠNOTICE": 30329,
    "Ġgiá»Ŀ": 104415,
    "oids": 17390,
    "Trigger": 18423,
    "lek": 76876,
    "Ġintrusion": 82146,
    "istÃ©": 115097,
    "ĠCurse": 71727,
    "ĠOL": 56370,
    "Ġ##Ċ": 48826,
    "çģ°": 118954,
    "examples": 52768,
    "uais": 74091,
    "ĠWand": 70029,
    "giene": 43312,
    "Ġtáº£i": 106697,
    "ĠĠĉĊ": 99351,
    "ĠÄĳá»ĵng": 101239,
    ".oper": 72621,
    "ĊĊĊĊĊĊĊĊĊĊĊĊĊĊĊĊ": 25638,
    "Ġarbitrarily": 86757,
    "ord": 541,
    "ĠExtension": 27571,
    ".subject": 34343,
    "ĠGiul": 63651,
    "copyright": 15859,
    "thus": 34232,
    "Ġmiktar": 114152,
    "().\"": 75003,
    "ĠNSA": 31883,
    "æīĢå±ŀ": 125151,
    "Ġbots": 50629,
    "ashington": 32799,
    "ri": 462,
    "ĠIncluding": 56221,
    "ãĥ¼ãĥ«": 64178,
    "matching": 90143,
    "ĠBarber": 69235,
    ".security": 15569,
    "ĠAges": 50093,
    "Ġ].": 21087,
    "ĠTOTAL": 48062,
    "ĠALPHA": 83897,
    "Î¹ÎºÎ¿Ïį": 106183,
    "observe": 49133,
    "uttgart": 55243,
    "orphism": 53907,
    "dol": 120807,
    "Ġcave": 26457,
    "Close": 8084,
    "Ġtopped": 40901,
    "ç¦ıåĪ©": 126356,
    "èĭ±åĽ½": 127515,
    "ĠØ§ÙĦØ£": 100461,
    "REF": 6124,
    "(uri": 26882,
    "Ġtoaster": 90918,
    "ĠGetById": 93185,
    "atee": 96780,
    "ï¼Įæľī": 106258,
    "Ġresponsibilities": 28423,
    "_GE": 60133,
    "iptables": 96389,
    "_initializer": 37562,
    "Ð¸Ð¼": 16494,
    "ĠOFFSET": 49204,
    "à¤¾Ċ": 105362,
    "Ġexpans": 40014,
    "Ġiso": 34556,
    "itura": 77866,
    "(mouse": 53254,
    "ĠViet": 18203,
    "Ġpotentials": 95358,
    "Ġparadise": 50852,
    "ĠÎ³": 63127,
    "Ġloves": 16180,
    "Verts": 89893,
    "ype": 500,
    "Ġhon": 5954,
    "ĠØªØ¬Ø±Ø¨Ùĩ": 121248,
    "ãĢĢï¾Ĭ": 123216,
    "ipated": 63332,
    "thesize": 27985,
    "ĠThanh": 109259,
    "du": 1072,
    "wu": 66565,
    "ãĢĢl": 102894,
    "å©¦": 122924,
    "Ġdisobed": 92683,
    "à¥įà¤¦": 101102,
    "Ġdiscuss": 4358,
    "Ġexplicitly": 21650,
    ".imwrite": 70004,
    "Exit": 15699,
    "erna": 47628,
    "Ġì¹ľêµ¬": 116892,
    "ĠDesde": 99043,
    "Ãº": 6792,
    "Ġcomun": 44035,
    "Ġsubgroup": 81215,
    ".dom": 22151,
    "ĠÐľÑĥ": 127278,
    "ĠAthletic": 51506,
    "Use": 10464,
    "lerini": 101611,
    "Ġmeydana": 114518,
    "ãĥĥãĤ·ãĥ¥": 116219,
    ".getMap": 85091,
    "Ġexposition": 91518,
    "Ġdays": 2919,
    "ÏĦÏīÏĥÎ·": 122227,
    "ĠFreund": 78879,
    "/forms": 26499,
    "[int": 19155,
    "à¸ģà¸²à¸£à¹ĥà¸Ĭ": 124065,
    "ĠWD": 64712,
    "Ġpetits": 86696,
    "ansom": 48331,
    "åĽ½éļĽ": 127123,
    "dash": 44619,
    "_digest": 54094,
    "Ġå¿ħ": 126075,
    "Ġtad": 64906,
    "ĠMos": 12847,
    "/m": 3262,
    "transform": 4806,
    "oor": 10922,
    "ĉprintln": 82268,
    "åĢ¼": 26592,
    "Ġminors": 49640,
    "ums": 6370,
    "Mutable": 11466,
    "AAP": 84016,
    "Ġ...(": 86498,
    "Ġillness": 17563,
    "lamaktadÄ±r": 127577,
    "ĠPols": 58819,
    "ĠSchro": 95682,
    "åĶ¯": 113723,
    "ĠINTERRU": 30182,
    "ĠGenius": 78901,
    "ĠÃºnora": 119739,
    "Ġmicroscope": 73757,
    "Ġä¿¡": 119736,
    "Ġæ²³": 111463,
    "Ġč": 119080,
    "Ġinadvert": 59928,
    "ĠJNIEnv": 86853,
    "Ġboldly": 96029,
    "ÏįÎ½": 103920,
    "ĠObserv": 31943,
    "Ġyandan": 117680,
    "Ġrepublice": 124713,
    "å®¢æĪ·": 114105,
    "uga": 38060,
    "ĠIndividuals": 62525,
    "<|reserved_special_token_57|>": 128065,
    "ãĥ»ãĥ»ãĥ»": 31195,
    "Ġcommands": 11545,
    "-white": 16237,
    "Ġconcluded": 20536,
    "&&&&": 121227,
    "è©": 50520,
    "Ġnumero": 20651,
    "Ġrais": 6503,
    ">${": 38780,
    "834": 26223,
    "ĠÑİ": 103512,
    "eterangan": 54411,
    "Virginia": 81696,
    "Workspace": 47081,
    ".sc": 7840,
    ")+Ċ": 86040,
    "Wat": 77604,
    "<Node": 31907,
    "Slug": 56068,
    "Â¨Â¨": 115488,
    "ĠparÃ§": 108021,
    "042": 22349,
    "Ġnulla": 61550,
    "Ġhiking": 38464,
    "Ġç¤ºä¾ĭ": 81526,
    "_From": 54257,
    "æľ¬å½ĵ": 117475,
    "Ġodp": 52006,
    "addListener": 85687,
    "amd": 69013,
    "é¡¯": 120220,
    "gen": 4469,
    "ĉfs": 54684,
    "ë©°": 101203,
    "ovanÃ½ch": 111859,
    "adam": 52054,
    "ĠgetInfo": 92924,
    "Coins": 70702,
    ".Marshal": 38371,
    ":ï½ī": 116890,
    "ĠÐ½ÐµÐ²": 105218,
    "Ġsadly": 44145,
    "Disappear": 63955,
    "ĠSPR": 52367,
    "ãģ§ãģĤãĤĬ": 116787,
    "-chief": 74719,
    "itre": 49834,
    "Ġdem": 2486,
    "sid": 21703,
    "Ġsplitting": 45473,
    "ĠÏĦÎ±": 101446,
    "ppt": 98528,
    "Verb": 68046,
    "Ġcorruption": 21948,
    "ĠOR": 2794,
    "Ġprow": 48658,
    "::::::": 31411,
    "ullo": 65688,
    "Ġ(-": 10505,
    "ìĦ¸ìļĶ": 51402,
    "change": 3455,
    ".ham": 51702,
    "ìĭľìĺ¤": 115106,
    "çº¸": 113292,
    "Ġbiscuits": 87076,
    "Ġstringify": 84266,
    "McC": 85031,
    "(tasks": 71439,
    "ĠLate": 36931,
    "Ġengage": 16988,
    "Ġmighty": 42727,
    "Ġcurtain": 46866,
    "ĠScha": 92818,
    ":Set": 15979,
    "impact": 58400,
    "ĠÐ±Ð¸ÑĤ": 127939,
    "ÙĨØ¯": 100274,
    "Ġunary": 76778,
    "åĿĲåľ¨": 127386,
    "zag": 93774,
    "reports": 38006,
    "ImageUrl": 80541,
    "ĠnÃ¢ng": 107514,
    "ĠSud": 27430,
    "Ġ<<-": 76774,
    "istance": 4011,
    ".Yes": 41898,
    "Cow": 91015,
    "ãĤĦ": 71289,
    "node": 3593,
    "ï¼ĮçĦ¶åĲİ": 115252,
    "ĠprÃ³ximo": 71898,
    "ĠSkyrim": 66029,
    "MMC": 63004,
    "ADED": 56133,
    "_ann": 52970,
    "annot": 3483,
    "rÃ¡v": 103264,
    "ĠCl": 2493,
    "Ġdefine": 7124,
    "Ġ|": 765,
    "Ġreplied": 20592,
    "10": 605,
    "rai": 68962,
    "Asset": 17015,
    "Î¬Î½ÎµÎ¹": 115034,
    "Ġlegendary": 28812,
    "lÄ±kla": 112564,
    "/object": 60589,
    "á»ĭa": 111709,
    "ĠDIN": 78359,
    "Ġdiscussed": 14407,
    "Ġ'\"": 7273,
    "EventData": 66974,
    "Ġdozen": 21030,
    "SAMPLE": 83825,
    "mere": 61031,
    "ĠÐ±ÐµÑĢÐµÐ³": 116937,
    "Ġumbrella": 48998,
    "ĠDriving": 53353,
    "ÑĤÐµÑĢÐ½": 121844,
    "_VERSION": 10907,
    "Ġæĸ¹": 72873,
    "decl": 10210,
    "[][": 64549,
    "Ð¾Ð·Ñı": 108706,
    "à¸ĺà¸Ļ": 126079,
    "Ġ'_',": 92024,
    "ĠHospitals": 85397,
    "Ġdiyor": 115561,
    "Ġreleases": 19786,
    "ioms": 91269,
    "æ¢¯": 121577,
    "Ġactualizar": 79729,
    "emb": 9034,
    "Ġkultur": 113939,
    "ĠNá»Ļi": 105006,
    "ĠMercer": 81111,
    "Ġhousehold": 14048,
    "Ġbrow": 60375,
    "ĠLegion": 40935,
    "Ġweaken": 33556,
    "ä»ĺãģĳ": 122382,
    "ĠíĴ": 107745,
    "Ġdesarroll": 64796,
    "Ġsam": 10167,
    "_DDR": 80938,
    "ĠExtract": 23673,
    "ĠRaphael": 90986,
    "ÙĤØ·": 103380,
    "Ġhair": 7013,
    "Ø©": 26957,
    "ĠHEX": 73321,
    "achelor": 25767,
    "payment": 14073,
    "_Invoke": 80243,
    "ĠEbola": 48082,
    "ĠÐ²Ð¸Ð´Ðµ": 107169,
    "ighbor": 19802,
    "ëĤĺë¬´": 123425,
    "Ġ(--": 58719,
    "Each": 4959,
    "ibil": 31617,
    "ĠÑģÑĤÑĢÐ°Ð½": 119641,
    "Ġful": 5716,
    ".AddInParameter": 92482,
    "93": 6365,
    "ĠCity": 4409,
    "Ġfixture": 12790,
    "yi": 39172,
    "èĪ": 63105,
    "Ġrape": 17199,
    "ĠMarble": 73621,
    "ĠCocoa": 76751,
    "Ġdiss": 14091,
    "Ġmisconception": 98431,
    ".Nil": 60778,
    "Ġincumb": 43850,
    "Ġmountains": 24405,
    "ByExample": 76173,
    "Ġsubtree": 54564,
    "}\")čĊ": 82708,
    "ĠÙħØ«Ø¨Øª": 119910,
    "à¸¶": 100470,
    "_lr": 47186,
    "593": 22608,
    "istribute": 81233,
    "Ġatom": 19670,
    "Ġgracefully": 79599,
    "ektor": 119267,
    "ASN": 69234,
    "Sprites": 76011,
    "ĠParis": 12366,
    "Ġuphe": 96710,
    "*)\"": 61995,
    "aterno": 80656,
    ".proc": 84530,
    "ilies": 7751,
    "Ġecosystem": 26031,
    "Ġerk": 89866,
    "_case": 19640,
    "¦¬": 57923,
    "ĠTrung": 102746,
    "ĠradioButton": 76520,
    ".openConnection": 88222,
    "_numbers": 34064,
    "äºĶæľĪ": 122706,
    "ĠCrawford": 54276,
    "accept": 10543,
    "Ġcalle": 68935,
    "_UP": 14384,
    "PLE": 9705,
    "Bind": 10154,
    "Ġoptimize": 30536,
    "ĠaldÄ±": 109665,
    "Margin": 22421,
    "ä¸ŃçļĦ": 105363,
    "Ġmoral": 16033,
    "_\",": 61202,
    "Ġemailing": 92801,
    "Ġopportunities": 10708,
    "recommend": 67689,
    "ĠTU": 70514,
    ".Rel": 40039,
    "Ä±lÄ±": 53271,
    "Ġhanno": 48884,
    "-defined": 39817,
    "_party": 45121,
    "Ġbeneficial": 24629,
    "Navigation": 16804,
    "URLRequest": 82174,
    "cpp": 11055,
    "Ġnh": 20921,
    "062": 19222,
    "ĠQue": 9605,
    "ĠĠĠĠĠĠĠĠĠĠĠĠĠĠĠĠĠĠĠĠĠĠĠĠĠĠĠĠĠĠĠĠĠĠĠĠĊ": 46907,
    "<AudioSource": 84725,
    ".CREATE": 82013,
    "ĠÑįÑĤÐ°": 107126,
    "layÄ±n": 121581,
    "ÙĪÙĦØ§": 116598,
    "_above": 78415,
    "ĠContracts": 71659,
    "Ġpeptides": 96434,
    "kers": 27269,
    "ÏĩÎµÎ¯": 126296,
    ".Serialization": 28354,
    "Unix": 56932,
    "ĠHitch": 71464,
    "ytut": 89586,
    "Ġridicule": 94847,
    "ÄĲiá»ģu": 115373,
    "Ġä¸ļ": 123365,
    "Ġgranite": 38390,
    "ë¡ľìļ´": 110948,
    "Ġmediums": 98912,
    "ĉsound": 95487,
    "sys": 7947,
    "åįİ": 86461,
    "Ġcatalogue": 49639,
    "Ġration": 66901,
    "ĠÑįÑĦ": 105927,
    "_mouse": 40303,
    "_banner": 47671,
    "Ġfarther": 43726,
    "Ġclaims": 8349,
    "ĠFetch": 22882,
    "ÑĤÐ¾ÑĦ": 120372,
    "ÑĤÐ°Ð¿": 117641,
    "_MPI": 78554,
    "ĠKick": 27776,
    "69": 3076,
    "Ġvá»ģ": 100690,
    "ĠDry": 31941,
    "Ġ*))": 98691,
    "ĠHttpServlet": 47319,
    "Ġopposes": 76312,
    "ĠMessage": 4961,
    "Ġcyclists": 56183,
    "Ġstare": 46943,
    "Ø§ÛĮØ¬": 116544,
    "egend": 88145,
    "418": 19770,
    "ĉbt": 83130,
    "Ġwaterfall": 70151,
    "æŀĲ": 98871,
    "ĠÐ¸Ð¼Ð¼Ñĥ": 121928,
    "\"]');Ċ": 96592,
    "iaÃ§Ã£o": 68743,
    "Ġinformal": 42887,
    "Ġtá»Ŀ": 117103,
    "Ġrk": 59106,
    "<Data": 45495,
    "Ġpymysql": 96473,
    "Professor": 48120,
    "à¸«à¸¥à¸²à¸¢": 108671,
    "Cart": 12878,
    "à¹ĩà¸ģ": 102444,
    ".har": 87555,
    "actice": 34101,
    "Ġunreliable": 67129,
    "/Area": 86441,
    "Ġ~": 4056,
    "quote": 3022,
    "Ġ^": 6440,
    ":hidden": 73731,
    "ĠÐļÐ¸ÑĹÐ²": 112231,
    "ĠÙģØ±ÙĪ": 118570,
    "(tk": 86060,
    "eval": 14504,
    "ĠDeal": 27359,
    "Ġnn": 11120,
    ".getElement": 4318,
    "=text": 49406,
    ".Point": 3860,
    "Ġfriction": 39676,
    ".Cluster": 73983,
    "Tab": 8750,
    "ichael": 60808,
    "<Account": 78169,
    ".beh": 70239,
    "âĢ¦âĢ¦": 14382,
    "ubuntu": 39079,
    "Ġspike": 37393,
    "ĠToolbar": 45384,
    "URITY": 38331,
    "deo": 95614,
    "Ġmiá»ģn": 114515,
    "ÑģÐ¸Ð»ÑĮ": 123415,
    "ä½įç½®": 82912,
    "ĠparÃ§asÄ±": 122601,
    ".Complete": 94673,
    "ÏĦÎµÏģÎ¿": 121804,
    "ĠCongo": 54932,
    "ati": 9491,
    "elerden": 116736,
    "getType": 29649,
    "meld": 37701,
    "ĉGUI": 66200,
    ".reset": 14178,
    "Ġballistic": 60633,
    "]\\": 18444,
    "heads": 36910,
    ".DataAccess": 54979,
    "ĠAuthorization": 31662,
    "Ġoccurs": 13980,
    "Ġcompens": 14573,
    "ĠÙĩÙħÛĮØ´Ùĩ": 123943,
    "çĽ´": 74245,
    "Cities": 77713,
    "ated": 660,
    "-stream": 39823,
    ":g": 71518,
    "Ġacquisition": 24279,
    "ÑĸÐ½": 100372,
    "ÂĨ": 122750,
    "_Row": 68032,
    "ĉdesc": 42753,
    "234": 11727,
    ",index": 41527,
    "åĽłæŃ¤": 109491,
    "ĠFeb": 13806,
    "Ġmpz": 72328,
    "Ġcherry": 41980,
    "Ġassigned": 12893,
    "Ġstriped": 68690,
    "Ġvehicles": 11731,
    "ĠAust": 13222,
    "ĠLGBT": 23983,
    "ĠÑĤÐ¾Ð²": 107520,
    "TimeString": 98041,
    "ĠÑģÐ²Ð¾ÑĶ": 110817,
    "assage": 39336,
    "Ġkadar": 75009,
    "Ġuncon": 26118,
    ".PictureBox": 23667,
    "ĠGn": 96251,
    "Ġoferta": 85320,
    "util": 1338,
    "ĠØ¯": 45430,
    "Ġverts": 60514,
    "CardContent": 79091,
    "Ġroutines": 30597,
    "ĠMs": 16450,
    "Matrix": 6828,
    "ĠÙ¾Ø±ÙĪ": 103545,
    "Ġabsolutely": 11112,
    "ĠPrim": 36283,
    "ĠeBook": 58610,
    "Ġfax": 49719,
    "Ġmasculinity": 80811,
    "ĠImageButton": 75198,
    "Ġauthored": 67213,
    "Ġamazed": 46304,
    "hf": 45854,
    "ĠRDD": 78355,
    "ĠInternal": 15774,
    "åīĽ": 124343,
    "ĠFrederick": 51764,
    "ffen": 26734,
    "[]>": 20859,
    "å¾ĹåĪ°": 113885,
    "ĠFUNCTION": 25856,
    "Ġhomelessness": 63022,
    "Ġlisting": 15182,
    "Reservation": 56048,
    "izar": 11403,
    "ĠWaiting": 53286,
    "ĠPg": 98365,
    "roulette": 99248,
    "Ġlucr": 46290,
    "Ġimprovements": 18637,
    "ıè¿°": 45934,
    "_CS": 35896,
    "çĲĨè§£": 113954,
    "ĠLux": 27466,
    "Ġà¤Ĩà¤¦à¤®": 124596,
    "ÙĬÙĬÙĨ": 113596,
    "è®®": 97522,
    "Ġbleiben": 91656,
    "ĠCauses": 74105,
    "_lab": 52928,
    "ĠFStar": 49250,
    "å¼Ħ": 119760,
    ".em": 9485,
    "ĠëħĦëıĦë³Ħ": 115744,
    "'%(": 49036,
    ".cards": 45818,
    "_Bool": 81048,
    "Ð½Ð°Ñı": 44858,
    "ĠChairman": 27390,
    "Ġztr": 112112,
    ".bottom": 17993,
    "ÃĲ": 96299,
    "Ð¾ÑĩÐ½ÑĭÑħ": 118671,
    "ĠÑģÐ»Ð¾Ð²Ð°": 106712,
    "Ġcause": 5353,
    "ĠKÃ¶y": 125720,
    "By": 1383,
    "ĠÐ²Ð¾Ð¾Ð±ÑīÐµ": 118235,
    "Ġwart": 61045,
    "=center": 75244,
    "aggio": 35259,
    "æ¼«": 109620,
    "ĠCarol": 10463,
    "ĠMainActivity": 28557,
    "Ġbacteria": 24032,
    "rof": 115649,
    "ãģĹãģ¦ãģĦãģŁ": 107113,
    "Ð¾ÑĨÐ¸": 114367,
    "ĠChemistry": 42846,
    "Ġbait": 49160,
    "èµ·ãģĵ": 125119,
    "Ġcompile": 19742,
    "Frequency": 39714,
    "ÐºÐ°Ð¼": 106850,
    "Ġmissile": 26290,
    "errs": 85835,
    "Ġtháº£i": 119332,
    "-inflammatory": 67595,
    "Daniel": 41686,
    "ĠBitmap": 17992,
    "orous": 20857,
    "PING": 74367,
    "roles": 14985,
    "Ġbourgeois": 53416,
    "Ġcombining": 35271,
    "Ġwhence": 88549,
    "ĉName": 22002,
    "Ġekran": 119615,
    "ĠåıĤèĢĥ": 124523,
    "Ġscreaming": 35101,
    "ĠÑĥÑģÐ¿ÐµÑĪ": 91613,
    "ĠÐŀÐ½Ð°": 109533,
    "éĩį": 30358,
    "addPreferredGap": 35375,
    "chrom": 41484,
    "xfd": 42583,
    "Ġ-------------------------------------------------------------------------Ċ": 81650,
    "Ġnak": 41986,
    "rong": 14684,
    "Ġ'@": 3542,
    "Ġurl": 2576,
    ".\");Ċ": 7470,
    "...)ĊĊ": 62927,
    "FH": 84414,
    "_soft": 39426,
    "Ġ\".": 6058,
    "ĠDrawing": 38859,
    "ĠMojo": 96749,
    "ĠDRIVE": 96887,
    "Ġgetline": 56298,
    "è»½": 117355,
    "ÙħØ¨Ø±": 113544,
    "cie": 25134,
    "ãģĭãģĦ": 121867,
    "ĠÙ¾ÛĮØ§ÙħØ¨Ø±": 124316,
    "ICollectionView": 23554,
    "Pan": 36793,
    "ãĢĤå½ĵ": 124192,
    "ĠRouteServiceProvider": 86802,
    "Ex": 849,
    "Ð¾ÑĢÐ°Ñı": 107124,
    "Ġforks": 74674,
    "ĠÐ¿ÐµÑĢÐµÐ¿Ð¸Ñģ": 124918,
    "ENTRY": 47256,
    "_PAUSE": 80638,
    "Ġbruises": 98675,
    "Ġrender": 3219,
    "ours": 2530,
    "Âī": 113584,
    "(mesh": 47441,
    "à¸²à¸Ĥ": 103902,
    "ĠNegro": 57147,
    "Ġlifted": 30831,
    "è¾ħ": 124781,
    "Ġdesign": 2955,
    "alan": 33383,
    "iframe": 24085,
    "_gray": 52431,
    "_encrypt": 67693,
    "ĠØ§Ø±Ø²": 120363,
    ".NoSuch": 80568,
    "åĪ¶åº¦": 114305,
    "ĠHashMap": 10751,
    ",{": 28937,
    "heading": 11666,
    "Ġseaw": 67329,
    "á»ĥ": 34550,
    "Ġconclusive": 98586,
    "ĠEM": 17329,
    "platz": 58648,
    "à¸µà¸ľ": 127446,
    "****/Ċ": 86434,
    "ëĭ¤": 13447,
    "Ã¼nst": 60491,
    "ĠcomboBox": 43811,
    "ĠzaÄįÃŃ": 120527,
    "ëħ¼": 119193,
    "arget": 1307,
    "å¨ģ": 105578,
    "ĠsoÄŁ": 116823,
    "Ġà¤ķà¤°à¤¤": 101541,
    "Ð¸Ð·": 41873,
    "ĠDataContext": 82677,
    "ĠçŃī": 111276,
    "ĠPoint": 5236,
    "Ġtoys": 23939,
    "ĠKodi": 82412,
    "-Ð¤": 117658,
    "Div": 12792,
    "ĠæĽ´æĸ°": 79203,
    "ĠRunnable": 22887,
    ".Margin": 20952,
    "Ġplace": 2035,
    ".communication": 90945,
    "Ġprevalent": 46941,
    "_Service": 53648,
    "à¸´à¸£": 104407,
    "_HELP": 50687,
    "acist": 50422,
    "itan": 13145,
    "roy": 3433,
    "ä¸Ńå¤®": 109432,
    "-viol": 76827,
    "ĠGutenberg": 52686,
    "launch": 34599,
    ",size": 36691,
    "ĠTests": 20756,
    "ibBundleOrNil": 90490,
    "}Ċ": 534,
    "_consts": 49630,
    "_lengths": 55516,
    "Ġ\";Ċ": 7775,
    "-II": 76644,
    "`,": 7964,
    ".newArrayList": 89031,
    "âĢ²": 39615,
    "ÑĹÐ²": 105598,
    "å¨ĺ": 107571,
    "_chip": 50614,
    "argent": 77217,
    "Î©": 101418,
    "]){Ċ": 27164,
    "ĠPhotograph": 33255,
    "Ġbreakpoints": 92630,
    ".Spring": 26791,
    "rientation": 18130,
    "Ġplanets": 33975,
    "Ġsami": 127129,
    "_deploy": 92990,
    "/src": 13743,
    "@return": 66103,
    "Hyper": 75046,
    "_eof": 91892,
    "ĠAstr": 39616,
    "iloc": 27043,
    "Ġassociations": 30257,
    "Ġvalves": 64100,
    "_dyn": 70313,
    "(cn": 93556,
    "alertView": 87709,
    ".movie": 44446,
    "Ġerv": 72175,
    "Ġnoticing": 62464,
    "|,Ċ": 51288,
    "ĠboÄŁ": 124095,
    "ĠpÃºblico": 60050,
    "(fn": 24968,
    "Ġundermine": 43047,
    ".command": 14475,
    "Equ": 25523,
    "ĠNSURL": 40963,
    "lices": 38514,
    "Mahon": 76072,
    "_GPU": 69816,
    "ĠartÄ±k": 108207,
    "_overlay": 59289,
    "ĠLoren": 52290,
    "Ġboredom": 90926,
    "Ġwaving": 64211,
    "Ġetter": 56916,
    "Ġmunch": 99345,
    "-ÐĶ": 122403,
    "Ġcolleague": 37444,
    "Donate": 97919,
    "Ġfauc": 50886,
    "ĠHus": 28997,
    "Theme": 12880,
    "Ð¸ÑģÑĤ": 35111,
    "ĥģ": 37209,
    "ĠBes": 18569,
    "_NON": 22912,
    "Continuous": 95880,
    "(lo": 74750,
    "_prob": 21457,
    "ĠPackageManager": 57495,
    "lector": 28769,
    "ÙĬÙģØ©": 121366,
    "UNC": 12921,
    "ĠnÄĽkol": 104783,
    "STRACT": 75692,
    "ĠmMap": 75570,
    "ĠFrid": 64104,
    "ĠMillion": 34629,
    ".CreateIndex": 61216,
    "Austin": 83489,
    "ĠAIDS": 46060,
    "inese": 7496,
    "ĠGetData": 76116,
    "ĠSENSOR": 68382,
    "ĠtvoÅĻÃŃ": 123497,
    "Ġhed": 61316,
    "ault": 957,
    "ĠCartesian": 81815,
    ".APP": 55653,
    "ĠÐ»Ð¸ÑģÑĤÐ¾Ð¿Ð°Ð´Ð°": 121554,
    "ĠÑĪÐ°Ð³": 121736,
    "Ġdancers": 61583,
    "ENV": 31460,
    "tier": 50435,
    "ĠÙħÙĨØ·ÙĤØ©": 119004,
    "ÑĢÐ°ÑīÐµÐ½Ð¸Ñı": 125289,
    "registration": 26947,
    "ÐµÐ½Ð¸Ñİ": 102385,
    "ĠCONF": 46289,
    "ĠØ±ÙĤÙħ": 112947,
    "({": 2358,
    "ĠBitcoins": 82925,
    "_menu": 10620,
    "\"</": 22246,
    "riding": 50780,
    "(padding": 92006,
    "Ġcurry": 55178,
    "Ġå½ĵ": 85997,
    "=index": 63741,
    "éĹ´": 18363,
    "ĉtime": 22724,
    "ĠGer": 20524,
    ".enable": 29797,
    "(feature": 28161,
    "_bias": 37481,
    "landÄ±rma": 125727,
    "Ġmalaysia": 80639,
    "ĠæĮĩ": 116325,
    "aket": 62042,
    "á»ĥn": 87982,
    "Ġdifficulties": 27129,
    "ĠWire": 19940,
    "ĠWang": 29346,
    "Ġsect": 31237,
    "(rt": 57254,
    "Editable": 31418,
    "ĠPredict": 33810,
    "Ġkako": 91617,
    "@yahoo": 54733,
    "ĠonChange": 9273,
    "queda": 42460,
    "_XML": 46717,
    "ĠCrypto": 33986,
    "ĠCobra": 85575,
    "ificate": 9445,
    "ĠSaras": 95914,
    ".stop": 13530,
    "è¼Ŀ": 119883,
    "ĠitemType": 89891,
    "oÄŁu": 108534,
    "Mixed": 87533,
    "Ġinduced": 36572,
    "ë°ĶìĿ´": 126906,
    ".mozilla": 54934,
    "ĠsaÄŁlamak": 117253,
    "ĠNew": 1561,
    "JKLMNOP": 74227,
    "Ġrz": 54101,
    "ØªØ§ÙħØ¨Ø±": 124291,
    ".:.:.:": 113787,
    "à¥Ģ,": 102067,
    "_bar": 14725,
    "Ġcoating": 41394,
    "<|reserved_special_token_246|>": 128254,
    "Ġwg": 64681,
    "ĠAffordable": 43606,
    "ĠprÃ¡vnÃŃ": 122608,
    "è®¯": 112608,
    "ĠSafety": 19220,
    "_END": 11137,
    ")size": 89003,
    "Hair": 70793,
    "UIL": 9975,
    "ĠèĤ": 107399,
    "ä¸İ": 58318,
    "Ġstrings": 9246,
    "brig": 83132,
    "Ġinitially": 15453,
    "_Printf": 88357,
    "_EM": 28247,
    "ĠHlav": 120013,
    "-eslint": 56275,
    "TestMethod": 23779,
    "Ù¥": 124043,
    "ĉĠĠĠĠĠĠĠĠĠĠĠĠĠ": 67626,
    "Ġgreat": 2294,
    "Ġ\"]\");Ċ": 93823,
    "Ġbew": 28054,
    "Override": 2226,
    "Ġ'*'": 31801,
    "(username": 17522,
    "/video": 42403,
    "ĠRespir": 77934,
    "ĠnÃ¥": 43235,
    "ÂłD": 113661,
    "ĠFY": 47466,
    "Ġfois": 37291,
    "(client": 13097,
    "-scroll": 35885,
    "Ġstylish": 32461,
    ".DropDownStyle": 84000,
    "ĠpÅĻeh": 112776,
    "ëŁ¬ìļ´": 123303,
    "[e": 23876,
    "RAD": 88600,
    "adia": 53931,
    "ĠArrest": 72417,
    "Goods": 47558,
    "ĠåĽ": 50702,
    "Ð·Ð°Ð½Ð¾": 114548,
    "ĠGomez": 63398,
    "*******čĊ": 77299,
    "versions": 29390,
    "Wildcard": 94088,
    "ĠRalph": 40904,
    "Ġdeclarations": 16068,
    "Ġbelie": 2888,
    "Ġplanetary": 62938,
    "<|reserved_special_token_17|>": 128025,
    "Ġcir": 30570,
    "ĠHurricane": 38201,
    "Ġrer": 49647,
    "Ġinequalities": 93334,
    "ĠGallery": 19853,
    "Court": 76874,
    "ĠIData": 76976,
    "à¸±à¸ªà¸Ķ": 119657,
    "Ġemailed": 49614,
    "\\Client": 49296,
    "á»ĳn": 101663,
    "ĠdÃ¼ny": 104418,
    "ĠÑģÐµÐº": 105809,
    "\"){čĊ": 52038,
    "ĠTourism": 52652,
    "upo": 20709,
    "ĠGrÃ¼": 95163,
    "Ġè£": 115189,
    "Ġlado": 44524,
    "ÃĮ": 108578,
    ".cal": 28971,
    "Ġvolley": 56673,
    "Ġedeb": 111212,
    "Ġtriggering": 52605,
    "intersection": 74748,
    "ispens": 54720,
    ".readString": 55602,
    ".addSubview": 35362,
    "Ġacess": 86070,
    "Ġlá»Ľn": 102610,
    "ĠPolitico": 71833,
    "_builder": 29632,
    "Ġasset": 9513,
    "_mv": 74287,
    "mek": 74853,
    "ĠGUID": 31321,
    "Ġpai": 61700,
    "Ġclimb": 26438,
    ".URL": 21563,
    "¯¸": 100554,
    "à¸±à¸ģà¸Ĺ": 119309,
    "LinkId": 67496,
    ".locals": 52172,
    "ĠPROT": 91928,
    "Ġpursued": 46531,
    "Ġpointing": 22364,
    "green": 13553,
    "êµŃìĿĺ": 126019,
    "ĠFinding": 43897,
    "Ġsatellites": 47710,
    "storms": 83109,
    "Ġconverted": 16489,
    "ĉstatic": 7122,
    "ĠÐ²Ð¸Ð´Ð°": 110376,
    "MediaPlayer": 71481,
    "_FLOW": 56918,
    ".category": 18898,
    "(beta": 76983,
    "Ġdispers": 79835,
    "BJECT": 10686,
    "ä¸ĢäºĽ": 113882,
    "ĠiNdEx": 91543,
    "Deque": 74991,
    "Runnable": 69936,
    "ĠÏĥÎµÎ¹": 122254,
    "42": 2983,
    "ëł¥ìĿĦ": 116688,
    "Ġculprit": 75283,
    "\"strconv": 60758,
    "ĉutil": 80238,
    "ĠÐłÐµÑģÐ¿": 114522,
    "observable": 34595,
    "',//": 87897,
    "ĠÐ´ÑĸÑıÐ»ÑĮÐ½Ð¾ÑģÑĤÑĸ": 108747,
    "excel": 41624,
    "Ø±Ø§ÙĨ": 100582,
    ":Any": 98292,
    "055": 22913,
    "Ġrestrain": 97876,
    "ĠØ¨ÙĪ": 101312,
    "ombat": 78728,
    "HorizontalAlignment": 86519,
    "Timestamp": 21479,
    "ĠrÃ©sultats": 100246,
    ".credentials": 75854,
    "Plus": 22560,
    "QR": 31565,
    "IVEN": 68057,
    "ÅĤy": 30678,
    "ÙĥØ§Øª": 106972,
    "ip": 575,
    "/how": 51426,
    "ì§": 17164,
    "ĠTribunal": 58071,
    "Ġintegers": 26864,
    "ĠFirst": 5629,
    "Ġshortages": 67276,
    "Ġtighten": 67845,
    "_nc": 53482,
    "Ġweekdays": 73095,
    "Ġsmugg": 41837,
    "<|reserved_special_token_211|>": 128219,
    "camp": 26304,
    "ÙĬÙĨÙĩ": 118669,
    "mayÄ±": 105929,
    "ÑıÑģ": 102955,
    "embourg": 56118,
    "/about": 43616,
    "ĠØ³Ø§Ùħ": 110592,
    "ĠBengal": 50120,
    "SIG": 51731,
    "ĠSHOW": 39581,
    "_;": 24058,
    "Ġbeds": 28036,
    "ĠFou": 95310,
    "Ġkav": 105831,
    "Ġfonts": 34080,
    "ĠAgents": 51354,
    "ĠOri": 38998,
    "Ġmembrane": 39654,
    "orus": 30969,
    ",âĢĿ": 2476,
    "ÙĦÙħØ§Øª": 114339,
    "ãģĮãģĤãĤĬ": 115991,
    "ĠPapua": 90181,
    "Ġpleaded": 40001,
    "subj": 79114,
    "à¸±à¸ģà¸©à¸ĵ": 120166,
    "ERCHANT": 7704,
    "ĉtitle": 25783,
    "Ġfis": 42723,
    "Ġcausing": 14718,
    "ĠÐ¿Ð°ÑĨÐ¸": 112921,
    "ĠDip": 56147,
    "ĠëĤ¨": 102484,
    "ĠUni": 49966,
    "orders": 8076,
    "âĢľSo": 70214,
    "èĩªçĶ±": 111764,
    "Ġsinh": 98932,
    "bcd": 92590,
    "ãģ¨ãģĭ": 110162,
    "LOOD": 90731,
    "ĠPyQt": 49777,
    "Ġvtx": 97979,
    "Ġprocess": 1920,
    "-point": 16983,
    "Ġgarlic": 31735,
    "ĠLNG": 88930,
    "coach": 89193,
    "ĠCrack": 56045,
    "ĠĠĠĠĠĠĠ": 286,
    "ANTLR": 63165,
    ".Ph": 37089,
    "width": 3175,
    "ĠLIS": 100126,
    "Ġcyc": 44448,
    "^{": 48922,
    "Ġnerve": 32015,
    "chef": 76179,
    "ĠDread": 82304,
    "mime": 50688,
    "Ø¹Ø§Ø±": 107936,
    ".Commands": 45492,
    "ĠOpt": 16963,
    "è¯·": 15225,
    "_LD": 73900,
    "centration": 94376,
    "Pairs": 55328,
    "Salary": 42773,
    "ĠBJ": 87599,
    "inal": 992,
    "Ġhostage": 59468,
    "ĠÙĨÙģØ³": 111377,
    "ĠPoss": 42145,
    "Ĳëĭ¤": 112039,
    "ĠLV": 40269,
    "ĠRL": 48596,
    "battery": 75459,
    "(INT": 69554,
    "Ġdisg": 33283,
    "Ġtranslation": 14807,
    "ĠGLfloat": 47582,
    "ĠIniti": 32497,
    "\\Notifications": 93332,
    "ĠProper": 65658,
    "ĠHO": 31350,
    "Ġà¸ģà¸³": 124795,
    "ĠÐ¿Ð¾ÑģÐ°Ð´": 108605,
    "Ġbá»ķ": 107166,
    "nga": 63630,
    "ĠÐºÐ°ÑĪ": 120563,
    "ĠRUN": 31860,
    "Ġitir": 125191,
    "ĠÐ½Ð°Ð·Ð½Ð°Ñĩ": 113288,
    "DIST": 80540,
    "à¸±à¸įà¸«": 126502,
    "Ġpredictors": 95222,
    "ĠÙĪÙĥ": 108833,
    "inqu": 53988,
    "Ø¶Ø§ÛĮ": 120344,
    "Ġpack": 3854,
    "Ġallowance": 41458,
    ".setPreferredSize": 70883,
    "ĠCritical": 35761,
    "Za": 119954,
    "Ġtokenize": 78751,
    "imbus": 96316,
    "_SPE": 89555,
    "Ä±sÄ±nÄ±": 114608,
    "à¹ģà¸£à¸¡": 108377,
    "_checks": 76897,
    "_des": 16145,
    "Ġ{?": 50476,
    "reste": 100034,
    "$value": 52222,
    "Ġinconvenience": 61109,
    "ĠBram": 71884,
    "Ġavailability": 18539,
    "ĠÐ·Ð½Ð°Ñİ": 114627,
    "Ġmythical": 84219,
    "ĠÐĳÐ¾ÑĢ": 115870,
    "çĽĴ": 122541,
    "ocation": 2328,
    "Ġsurround": 9172,
    "_algo": 78093,
    "Ġnederland": 63369,
    "ĠØ§Ø²": 100307,
    "_constraints": 61367,
    "ÛĮÙĦÛĮ": 120083,
    "ilecek": 104973,
    "_FLUSH": 81495,
    "ĉtile": 90995,
    "esimal": 30572,
    "suite": 51092,
    "Ġczy": 37050,
    "Ġstud": 1707,
    "Ġviewport": 33353,
    ".getenv": 49563,
    "Ã¶ÃŁe": 80040,
    "Äįil": 105840,
    "<|reserved_special_token_176|>": 128184,
    "Courtesy": 78139,
    "Ġcialis": 28893,
    "ĠmodelBuilder": 38604,
    "ĠVentura": 85754,
    "ĠpeÄį": 119305,
    "persons": 77751,
    "052": 24130,
    "Ð½ÐµÐ¼": 105445,
    "-Ð¼": 113634,
    ".Warn": 69565,
    "ãģ£ãģ¦ãĤĭ": 113017,
    "ÐµÑĢÐ¸Ð½Ð°": 126124,
    "ĠTokens": 59266,
    "Ġìĭ±": 119591,
    "Ġregistr": 23702,
    "éĺ»": 114632,
    "_rewrite": 75152,
    "omidou": 54441,
    "761": 25110,
    "ĉtp": 74523,
    "Ġsidelines": 70513,
    "Philadelphia": 90524,
    "ĠÐ¸ÑģÐ¿Ð¾Ð»ÑĮÐ·ÑĥÑİÑĤ": 119276,
    "processing": 21315,
    "Ġimprisonment": 43374,
    "Ġplano": 85428,
    "PyObject": 54476,
    "ĠstrokeLine": 78929,
    "Ġpatient": 8893,
    "Ġinteg": 5503,
    ">Password": 80558,
    "_TRACE": 25220,
    "jmu": 122797,
    "ĠPeters": 32284,
    "Ġjudge": 11913,
    "<bool": 17464,
    "Ġdecreases": 43154,
    "ĠBeans": 81836,
    "ĠrozhodnutÃŃ": 113225,
    "Ġrestraining": 84393,
    "mod": 2658,
    "IMA": 73924,
    "icolon": 39617,
    "]<": 35239,
    "_HEL": 70335,
    "handled": 39921,
    "CV": 20161,
    "egin": 3088,
    "ĠÎµÏĨÎ±Ïģ": 127205,
    "compet": 28344,
    "_vals": 30650,
    "Ġsudah": 50896,
    "ĠLob": 68617,
    "ane": 2194,
    "Ġbitir": 120737,
    "rett": 17708,
    "×¢": 87171,
    "Ġpursue": 23564,
    "Ġobjc": 64426,
    "à¸Ĭ": 49220,
    ";}Ċ": 12355,
    ",DB": 50665,
    "Credential": 49365,
    "Ġrevived": 69375,
    "ãĤ«ãĥĨãĤ´ãĥª": 118455,
    "ĠkÄ±ÅŁ": 127398,
    "Ġnguyá»ĩn": 123067,
    "Ġmafia": 90985,
    "_DRIVER": 45142,
    "Ù«": 103189,
    "ĠWHITE": 43867,
    "Ġêµ¬": 59877,
    "Ġyou": 499,
    ".launch": 37552,
    "();//": 27166,
    ":A": 56748,
    "$PostalCodesNL": 85071,
    "_pal": 74410,
    "allowed": 21642,
    "hledem": 112945,
    "AUTHORIZED": 81999,
    ".fs": 42455,
    "_VAL": 6224,
    "neo": 52360,
    "strap": 5202,
    "Ð°Ð½ÑĸÑĹ": 113491,
    "Ġ;": 2652,
    "Ġdamn": 27860,
    "pars": 73480,
    "ĠdÃ¼ÅŁÃ¼n": 102394,
    "addafi": 94412,
    "Ġlg": 27180,
    "Ġnewborn": 46397,
    "GLOBAL": 16899,
    ".snp": 64009,
    "irectory": 4863,
    "à¸ªà¸³à¸Ħ": 111693,
    "Ġrift": 78257,
    "ahan": 22826,
    "ãģĶ": 48154,
    "Ã¼nchen": 52931,
    "ĠÐ´Ð°Ð½Ð½ÑĭÐµ": 67181,
    "ippets": 43970,
    "ĠXIV": 94515,
    "ĠÐ¾ÑĢÐ³Ð°Ð½Ñĸ": 107056,
    "ĠDresses": 94617,
    "pants": 93037,
    "ĠÂŃ": 50955,
    "Watcher": 48348,
    "åĲ¬": 50287,
    "itou": 120960,
    "getResponse": 60441,
    "ĠOnly": 8442,
    "Ġiii": 63193,
    "ĠFe": 3926,
    "ĠPush": 23804,
    "ĠalÄ±n": 103056,
    "Ġaborted": 59992,
    "Ġsuck": 19419,
    "ĠåĪĿ": 111946,
    "dealloc": 76760,
    "Ġpreempt": 82847,
    "GBT": 21929,
    "Â®": 12175,
    "Ġprofessional": 6721,
    "ĠChristine": 46993,
    "ê·": 90161,
    "ĠsegÃºn": 63115,
    "Ġsemana": 46075,
    "AGMENT": 53333,
    "ĠLOGGER": 29188,
    "}}\">{{$": 91511,
    "Ġnegatives": 75185,
    "ĠÐ¿ÑĢÐ¾Ð¸Ð·Ð²Ð¾Ð´ÑģÑĤÐ²Ð°": 122083,
    "_gpio": 33101,
    "Ġ/Ċ": 40081,
    "ĠÐ²Ð¾ÑĤ": 108802,
    "Ġ*</": 81561,
    "éĩĳ": 35330,
    "`]": 81809,
    "Ġkits": 32596,
    "ennent": 89810,
    "FetchRequest": 71064,
    "uint": 2557,
    "ĠJText": 39655,
    "Router": 9713,
    "Component": 2238,
    "UN": 1899,
    "imation": 5582,
    "ĠbeforeSend": 92612,
    "ĠÙ¾Ø³Ø±": 124948,
    "tram": 99040,
    "Ġpcb": 87340,
    "ListItem": 19583,
    "reaction": 60307,
    "ĠStd": 43617,
    "lerdi": 120533,
    "ĠRecon": 84081,
    "ĠÏĢÎ¿Î»Ïħ": 124516,
    "à¸Ĺà¸¢": 101301,
    "*/,": 30878,
    "bral": 42743,
    "Ġdeutsch": 58284,
    "Ġrecal": 99783,
    "ĠTEM": 76770,
    "Äįek": 103736,
    "Ġdistract": 64917,
    "Ġluggage": 51597,
    "Whatever": 47916,
    "_prepare": 48560,
    "ĠzÅ¯st": 112888,
    ".Bot": 83875,
    ".ts": 21991,
    "æīį": 102280,
    "(',')Ċ": 62365,
    "rections": 68443,
    "Ø§Ø´ÛĮÙĨ": 109322,
    "ãģĦãģ«": 119178,
    "ĠÃĸn": 111511,
    "islav": 115645,
    "_keeper": 44504,
    "afone": 80394,
    "Ġ#-": 31007,
    "Ġfibr": 95235,
    ".crm": 83744,
    "ĠBallard": 98816,
    "REFER": 11698,
    ">\";Ċ": 6876,
    "------------": 5272,
    "_filenames": 81732,
    "paced": 69652,
    "ĠNUIT": 75076,
    "ĠÐ½ÐµÑģÐ¿": 120541,
    "Request": 1939,
    "Ġenthusiasts": 43448,
    "_-": 40411,
    "Ġharsh": 25984,
    "ĠamatÃ¸r": 73628,
    "Ġkk": 50965,
    "ĠActivity": 15330,
    "Ġreigning": 91056,
    "ç§ĺ": 109243,
    "skÃ½m": 109560,
    "Ġreli": 9559,
    "Ġthuis": 55384,
    "âĢĲ": 31021,
    "ing": 287,
    "ëĸ": 104207,
    "[code": 89073,
    "emma": 34893,
    "Ã¼rnberg": 94456,
    "âĢ¡": 111641,
    "ĠPassport": 67900,
    "_oct": 71235,
    "Ġà¸ªà¸³à¸«à¸£": 111823,
    "Ġcommitment": 15507,
    "Ġdread": 36075,
    "ÙģØ´": 113062,
    "Author": 7279,
    "ĠCann": 30568,
    "ividad": 95266,
    "ĠScreens": 69781,
    "Ġchave": 98735,
    "ĠÐļÐ¾Ð¼Ð¿": 124617,
    "Ġè°": 111370,
    "vale": 78829,
    "Ġ\"//": 36674,
    "Ġnegatively": 48291,
    "_safe": 35167,
    "Branch": 18697,
    "Ġ({Ċ": 14182,
    "KEEP": 52901,
    "orton": 38200,
    "Ð°Ð´Ð¶": 123453,
    "Ġ$(": 5035,
    "Ġtáº£ng": 122213,
    "/scripts": 40472,
    "ĠFrench": 8753,
    "ãĤ¶ãĥ¼": 119534,
    "Ġlocalization": 53404,
    "_and": 8543,
    "ÑģÐºÐ°": 114022,
    "Ja": 53545,
    "ĠYour": 4718,
    "ĠÐ·Ð°Ðº": 59313,
    "ĉmove": 50388,
    "Â²": 30556,
    "STREAM": 55426,
    "ĠQUEST": 57828,
    "Sent": 32458,
    "Ġbeginning": 7314,
    "Ġbleibt": 95085,
    "Ġexploding": 73745,
    "IFIED": 28420,
    "_MEM": 13512,
    "ĠOg": 41937,
    "(common": 58902,
    "-know": 100220,
    "ayed": 43995,
    "OfMonth": 60746,
    "(begin": 50171,
    "ĠBurn": 18530,
    "ĠmoÅ¾": 102506,
    "Ġselect": 3373,
    "ĠRonaldo": 65515,
    "Ġmulticast": 80634,
    "Ġtaco": 91941,
    "ĠØµØ§ÙĦØŃ": 124314,
    "Ġforensic": 55321,
    "PART": 34590,
    "organic": 61694,
    "Ġpushing": 17919,
    "'});Ċ": 29361,
    "à¸´à¹Ģà¸¨à¸©": 112317,
    "ĠEz": 39726,
    "ĠFlying": 47152,
    "akening": 74462,
    "IDTH": 11061,
    "alach": 72484,
    "fault": 60672,
    "umblr": 30701,
    "Ġreturns": 4780,
    "hya": 87323,
    "ĠCycl": 72545,
    "ĠhttpClient": 46875,
    "ĠÐ¼Ð¸ÑĢ": 115388,
    "%!": 90520,
    ".brand": 62875,
    "ãĢĢãĢĢĠãĢĢĠãĢĢĠãĢĢ": 116828,
    "ĠSunni": 56110,
    "Val": 2257,
    "Ġmadd": 107854,
    "Ġäºİ": 119947,
    "acon": 23184,
    "Ġinviting": 42292,
    "Ġsculpture": 51067,
    "GMEM": 80864,
    "Ġcommander": 29094,
    "Ġwiping": 84239,
    "Metric": 55410,
    "Ġash": 24767,
    "wi": 17043,
    "Ġ')[": 64581,
    "Ġethical": 31308,
    "ĠREST": 26487,
    ".G": 1246,
    "(bg": 60460,
    "Ġdead": 5710,
    "ĠVue": 23052,
    "ĠPell": 89008,
    "etten": 95201,
    "head": 2025,
    "Ġeff": 3369,
    "Ġiss": 2425,
    "/Application": 89304,
    "Ġldb": 98889,
    "AUTO": 68360,
    ".Submit": 99409,
    "æį": 15017,
    ".ease": 63754,
    "à¸¸à¸£à¸ģ": 112331,
    "Pago": 83327,
    "urve": 74147,
    "eds": 6910,
    "yny": 57504,
    "'o": 94572,
    "ĠéĻĪ": 121446,
    "acers": 73797,
    "Ġplainly": 65395,
    "ĠØ´ÙĨØ§Ø®ØªÙĩ": 126600,
    "Ð¼Ð¾Ð¶": 79104,
    "inherits": 78936,
    "imates": 48571,
    "Interface": 5160,
    "éĭ": 110544,
    "ĠFinance": 23261,
    "Ø³": 20665,
    "ĠcÃŃt": 120339,
    "-bind": 66063,
    "ĠBew": 38310,
    ">C": 26712,
    "ĠâĨĺ": 126446,
    "Ø§Ø¹Ø¯Ø©": 113407,
    "ĠsÃ¼r": 101235,
    "Ġcloses": 34350,
    "ĠDot": 32362,
    "ĉĉĉĠĠĠĠĠĠĠ": 33817,
    "Î¹ÎºÎ·": 116782,
    "ĠJacques": 64850,
    "Business": 23562,
    "Ġinward": 63018,
    "Ġstal": 80576,
    "ĠØ£ÙĦÙħØ§ÙĨ": 127362,
    "ÐĵÐŀ": 116948,
    "_DISCONNECT": 77325,
    "ÅĻez": 107910,
    "ĠtextField": 32488,
    "esch": 60478,
    "olon": 73369,
    "Ġpulses": 66557,
    "ĠTooth": 83499,
    "OURSE": 75008,
    "thumbs": 96490,
    "ì¶ľìŀ¥ìķĪë§Ī": 121119,
    "cribe": 3191,
    "ĠPorts": 70966,
    "SpecWarn": 52362,
    "Ã¤sent": 92030,
    "Ġlawsuits": 43986,
    "ĠFlatButton": 75717,
    "Ã¡lnÃŃch": 108700,
    ".UtcNow": 59117,
    "packet": 25868,
    "ê°ĢëĬ¥": 116669,
    "Ġsentiment": 27065,
    "ĠÐ±Ð°Ð»": 107550,
    "923": 22614,
    "phis": 37889,
    "Ġsubstring": 39549,
    "Ġtelah": 58735,
    "Ġjudging": 50790,
    "ĠFavorite": 40822,
    "Ġmisguided": 76606,
    "Minnesota": 93465,
    "Operations": 36220,
    ")o": 89563,
    "Criteria": 13117,
    "Ġdelaying": 80430,
    "ãĤ¦ãĤ©": 124981,
    "udge": 20132,
    "ĠDEN": 67286,
    "Ġbillion": 7239,
    "Ġslav": 118490,
    "Ġoutras": 74802,
    "anches": 83281,
    "Ġxin": 110764,
    "addock": 80534,
    "periment": 14666,
    "ĠAstronomy": 95803,
    "orne": 17334,
    "ĠMelee": 64339,
    "Ġsubroutine": 89434,
    "umas": 55024,
    "Ġweap": 6289,
    "ĠEll": 13852,
    "ãĥĭãĥĭãĥĭãĥĭ": 110094,
    "ĠResourceType": 98901,
    "ĠWooden": 63592,
    "Ġupgrade": 14234,
    "Ġpaso": 62777,
    "Pitch": 48171,
    "Ġoffic": 2856,
    "Ġíķĺì§Ģ": 117193,
    "credits": 56869,
    "ãģĳãĤĮãģ°": 118145,
    "*,": 12594,
    "Ġencounter": 13123,
    ".grp": 95858,
    "Î½Î¿Ïį": 110691,
    ".Fprintf": 60659,
    "Ġinstantaneous": 96219,
    "&m": 96732,
    "ĠÎ·": 101034,
    "åºķ": 104792,
    "ĠRaises": 61411,
    ")['": 51610,
    "()čĊčĊčĊ": 68907,
    "decoder": 49210,
    "Ġblok": 123539,
    "ĠØ§ÙĦØªØ¬": 113803,
    "Ø§Ø¨ÙĤÙĩ": 119845,
    "ulous": 13850,
    "Ġsharpen": 57463,
    "Ġë°": 22817,
    "ĠÐ¡ÑĤÐ°": 127160,
    "DOG": 98910,
    "Het": 63794,
    "ÛĮØ³ØªÙħ": 108574,
    "Ġcel": 19637,
    "_LVL": 95382,
    "ĠDNC": 53065,
    "Ġbreached": 82166,
    "Ġíķĺ": 55000,
    "ĠCPUs": 66575,
    ".getSelection": 52134,
    "(&": 2146,
    "Ġtribe": 34671,
    "Ġê¶ģê¸Ī": 123342,
    ".Help": 71982,
    "Ġcommittees": 42547,
    "ĠNSLocalizedString": 61372,
    "_vis": 16266,
    "_AFTER": 73439,
    "à¹īà¸²": 59095,
    "ĠpÅĻÃŃpad": 103044,
    "<|reserved_special_token_200|>": 128208,
    "ÙĨØ¯Ú¯Ø§ÙĨ": 106168,
    "ĠScreening": 70189,
    "à¥įà¤®à¤ķ": 113072,
    "ĠØ°Ø§Øª": 113443,
    "ãĥ´": 105117,
    "ĠSalmon": 62826,
    "ĠÙĨÙħØ§Ø²": 126505,
    "taskId": 81788,
    ".textLabel": 56889,
    "ÂłÙħ": 124817,
    "Ø¬ÙħÙĪØ¹": 103969,
    "_creation": 47263,
    "à¸²à¸«": 101731,
    "Ġkw": 30625,
    "Ġmeantime": 33953,
    "ĠAcres": 83559,
    "phot": 52399,
    "ĉwindow": 24454,
    "udder": 57229,
    "Ġë§ĲìĿĦ": 113578,
    "Ġsurrounds": 71374,
    "ĠAccept": 21496,
    "ĠAndre": 27525,
    "ĠPortrait": 79682,
    "à¥įà¤°à¤¹": 108590,
    "oug": 49404,
    "Ġcompose": 31435,
    "states": 33169,
    "æĤ²": 116292,
    ".scope": 49471,
    "ĠBJP": 41167,
    "(browser": 52920,
    "ĠLunar": 79195,
    "(DbContext": 94371,
    "ugen": 70089,
    "_ASSERT": 12058,
    "Ġglitch": 62184,
    "Ġ\")\";Ċ": 47251,
    "akespeare": 37971,
    "-check": 16313,
    "224": 10697,
    "><![": 74299,
    "ÂłpÅĻÃŃ": 126247,
    "-background": 43034,
    "124": 8874,
    "_fwd": 82183,
    "Ä±ndan": 68233,
    "ĠSAS": 51826,
    "à¹Ĥà¸Ĺà¸£": 115730,
    "âĢĮØ³ÛĮ": 116954,
    "Ġchief": 10388,
    "ĠÅŁirket": 106040,
    "leÅŁ": 101023,
    "ĠLey": 54525,
    "Ġshelter": 23756,
    "Ġlace": 46793,
    "Ġchipset": 92814,
    "à¤ªà¤¨": 100726,
    "-resolution": 64036,
    "è®¤è¯Ĩ": 127654,
    "Ġprive": 34473,
    "ĠLevi": 56141,
    "Ġtrays": 92825,
    "Ġ}));ĊĊ": 28225,
    "ĠSYMBOL": 75638,
    "-tax": 58144,
    "orsk": 82687,
    "ĠÐ¿Ð¾ÑħÐ¾Ð´": 120441,
    "à¤¯à¤°": 120012,
    ".Ab": 26271,
    "riz": 25772,
    "-ball": 68302,
    "ildo": 31045,
    "bÃŃ": 101955,
    "shit": 41153,
    "ĠFibonacci": 80783,
    "ĠcaracterÃŃsticas": 93554,
    "Ġnastav": 115912,
    "770": 20772,
    "ĠÐ£": 59842,
    "Ġassoci": 4189,
    "-Level": 93880,
    "Ġå¼Ģå§ĭ": 117125,
    "Ġsuits": 29076,
    "ĠAlumni": 76526,
    "ĠÎºÎ¹": 111172,
    "Ġcreated": 3549,
    "Ġreass": 32834,
    "(Collider": 51903,
    "formatted": 50978,
    "ĠÐ²Ð¸Ð´Ñĥ": 122423,
    "Ð¸ÑĩÐµÑģÑĤÐ²Ð¾": 60894,
    "ĠÐ±Ð°Ð½Ðº": 123858,
    "Ð¾Ð´Ñĸ": 103901,
    "à¤¾à¤¸à¤¨": 111180,
    "ĠTraverse": 87833,
    "Ġclouds": 30614,
    "Â°F": 59572,
    "ĠSetup": 19139,
    "-click": 29218,
    "@m": 92464,
    "ÏĦÎµÏģ": 107190,
    "informatics": 98588,
    "ĠLaundry": 82732,
    "ĠUrb": 72313,
    "Ø¹ÙĬ": 109255,
    "Ġrewriting": 95545,
    "ĠuseStyles": 35229,
    "Stone": 46960,
    "Ġripped": 44092,
    "ĠåŃ¸": 123189,
    "ĠmÃŃn": 71324,
    "MainMenu": 87328,
    "ested": 10185,
    "Ġabused": 36665,
    "Trace": 6687,
    "Ġencouraging": 26921,
    ");ĊĊ": 629,
    "ĠTestCase": 31673,
    "Ġchatte": 54951,
    "ÏĦÎ¹ÎºÏĮ": 104464,
    "-on": 10539,
    "ãĤĮãģªãģĦ": 110615,
    "Ġethos": 85339,
    "_container": 16226,
    "à¹Ģà¸®": 121975,
    "ĠAmbassador": 45672,
    "Ġgetattr": 31097,
    "ĠQDialog": 70177,
    "Ġctxt": 60262,
    "Ġfarmers": 20957,
    "ĠÐ¡Ð²": 109963,
    "/mod": 39579,
    "Ġcharities": 51371,
    "ĠDelta": 26002,
    "(system": 47106,
    "Ġpolis": 127125,
    "ĠSydney": 21972,
    "Ġná»Ļi": 104089,
    "Ġencode": 16559,
    "Ġimposed": 27070,
    "_M": 1267,
    "GetProperty": 83693,
    "Ġmongoose": 15980,
    "ĠSAM": 47687,
    "validation": 12564,
    "Ġjudicial": 31752,
    "Major": 35575,
    "xis": 7339,
    "_pairs": 37530,
    "_Customer": 95696,
    ">x": 29357,
    "flatten": 48166,
    "ĠSta": 60920,
    "Ġcleaners": 75965,
    "Ġyemek": 112853,
    "Ø§ÙħØ¬": 121338,
    "ĉbg": 77231,
    "_HTML": 57826,
    "ĠÑĤÐ°ÐºÐ¸Ð¼Ð¸": 124844,
    "[]){Ċ": 80418,
    "eil": 59891,
    "Ġregulations": 14640,
    "ĉall": 52060,
    "Ġwatchers": 87672,
    "vanced": 89187,
    "è¿°": 43032,
    "æīĭãģ«": 124475,
    "_MUL": 92521,
    "ĠÐ²Ð¸Ð´": 74020,
    "Ġà¤ľà¤¬": 103369,
    "ĠStockholm": 53182,
    "Ġounce": 54808,
    "archive": 16402,
    "Ø¨ÙĪØ§Ø³Ø·Ø©": 107952,
    "ĠØ¹ÙĪØ§ÙħÙĦ": 118524,
    "Ġpeque": 48467,
    "ĠBaseController": 56561,
    "ĠÃ©c": 91329,
    "Ġdramatic": 22520,
    "Ġyeah": 22371,
    "ASH": 9729,
    "OSH": 87288,
    "ØªÙĪÙĨ": 112985,
    "invoke": 23238,
    "Ġ|:": 104377,
    "iore": 87107,
    "=target": 97878,
    "ries": 4108,
    "Ġmercado": 49950,
    "ÑĩÐµÑģÐºÐ¾Ð³Ð¾": 113055,
    "ĠÐ¿Ð¾Ð²Ð¸Ð½ÐµÐ½": 123337,
    "(raw": 23269,
    "igaret": 44375,
    "Ġchiropr": 77301,
    "à¸ªà¸³": 102092,
    "Ġintriguing": 41765,
    "ĉDD": 79497,
    "-fill": 60087,
    "ĠIreland": 14990,
    "ĠMÃ©d": 98490,
    "Ġedition": 14002,
    "Ġrisky": 41273,
    "Ġtai": 53637,
    "ĠitemId": 47471,
    "Ø¯ÛĮÚ¯Ø±": 125631,
    "Ġsito": 51719,
    "Ġstrpos": 44568,
    "/em": 63876,
    "ĠDate": 2696,
    "-dem": 77779,
    "Loss": 40938,
    "Several": 35862,
    "å¿ľ": 106608,
    "Ġradi": 12164,
    "ĠnIndex": 92124,
    "publisher": 52291,
    "Ġsensitivity": 27541,
    "fromJson": 98856,
    "Ã¤ll": 33351,
    "ÑĢÐ°ÑĤÐµÐ³": 115663,
    "æİ¥çĿĢ": 125980,
    "âĺħ": 27347,
    "Ġ\"+\"": 60598,
    "Ġ-(": 29506,
    "ĠEmer": 21185,
    "/gtest": 71711,
    "ì£Ħ": 122108,
    "Ġscreams": 61108,
    "ĠDOI": 59670,
    "/';ĊĊ": 96273,
    "ëª»": 120669,
    "ĠProtector": 82219,
    "\":[{\"": 67682,
    "ĠJessica": 33467,
    "Ġcontrace": 45936,
    "'][": 10136,
    "Ġenterprises": 40919,
    "Tumblr": 96262,
    "plx": 79954,
    "Ġstands": 13656,
    "(KEY": 38176,
    "Ġcomplications": 36505,
    "Ġliberty": 31220,
    "_buf": 10579,
    "fieldname": 87198,
    "à¸±à¸§à¸«à¸Ļ": 126705,
    "Ġbá»¥": 115293,
    "Coordinates": 44976,
    "Ġforums": 25907,
    "Ġkendi": 103689,
    "oren": 24568,
    "æ²¡æľī": 81543,
    "Ã´i": 100787,
    "Ò": 142,
    "ĠCurl": 79438,
    "Ġmotors": 38424,
    "ĠmÃŃnimo": 98399,
    "Ã§uk": 121762,
    "ĠExchange": 19224,
    "Ð°Ð¶": 38657,
    "Ġintrinsic": 47701,
    "ĠolacaktÄ±r": 112623,
    "icana": 99605,
    "ĠPlanning": 28780,
    "Ġrencontrer": 91026,
    ".ToDateTime": 57163,
    "ĠBuccane": 86870,
    "expiry": 76817,
    "à¹Īà¸§à¸ĩ": 106131,
    "cisi": 125325,
    "contro": 44848,
    "Ġonboard": 56158,
    ",temp": 56655,
    "EFI": 57809,
    "filled": 28611,
    "san": 34182,
    "ĠEpisodes": 90237,
    "Ġexpo": 93416,
    "ĠDÃ©": 50501,
    "block": 4677,
    "ĠeBooks": 95721,
    "ì§Ģ": 22035,
    "Ġwool": 39640,
    "ï½¤": 100516,
    "ĠDh": 44327,
    "Ġtablespoon": 62611,
    "ĠØ¹ÙĨ": 100926,
    "à¹ģà¸¥à¸°à¸ª": 121654,
    "-inv": 88586,
    "uyá»ħn": 105166,
    "ogs": 27403,
    "iard": 68965,
    "nob": 56123,
    "Ġcake": 19692,
    "æĬĺ": 108881,
    "ĠÙĬØ¬": 120927,
    "..:": 114100,
    "Ġstained": 61152,
    "Rand": 57224,
    "ĠSentinel": 57893,
    "ĠØªÙĨ": 101800,
    "LLU": 46210,
    "Ġlend": 39580,
    "$objPHPExcel": 99564,
    "oring": 5620,
    "mayacak": 126028,
    "Labour": 84628,
    "sher": 90605,
    "Ã¡lie": 126988,
    "Ġprofessionalism": 66429,
    "Aus": 87650,
    "=\"../../../": 71512,
    "loquent": 21162,
    "ĠÐ·Ð°ÑħÐ¾Ð¿": 126400,
    "ĠÙĨÙĪÙģ": 118232,
    "Ġsuffer": 7831,
    "Ġbeams": 51045,
    "Ġyears": 1667,
    "Ġzamanda": 107230,
    "Ġìłķë¶Ģ": 118951,
    "Äģ": 31757,
    "ĠMeter": 53639,
    "ĠNicholson": 89983,
    "ĠRandall": 68444,
    "ĠkullanÄ±lan": 112111,
    "MeshPro": 91630,
    "MSN": 80460,
    "ismatch": 26024,
    "-Ð»Ð¸Ð±Ð¾": 121100,
    "-filled": 44518,
    "=g": 38262,
    "'].'\"": 67090,
    "[first": 76532,
    "otos": 8160,
    ".Annotations": 92272,
    "sdale": 84782,
    "Ġspeaks": 21881,
    "_rep": 26614,
    "Ġidade": 67065,
    "UNCTION": 9260,
    "/,Ċ": 59758,
    "ĠCHtml": 52436,
    "Ġarriv": 69003,
    "pliance": 32712,
    "ĉdescription": 43507,
    "ĠTian": 48443,
    "Ġdisen": 91910,
    "'%": 37265,
    ".isOpen": 66891,
    "794": 25926,
    "åĹ¯": 116274,
    "problem": 35686,
    "Ġtrick": 14397,
    "ĠCob": 47051,
    "_INFO": 9245,
    "Ġrebate": 91046,
    "Ġprominence": 71199,
    "ĠÐ±Ð¾Ð»ÑĮÑĪ": 103816,
    "!ĊĊ": 2268,
    "Ø¶Ùħ": 116121,
    ".ids": 57302,
    "ĠRen": 14094,
    "ĠRoyals": 70631,
    "20": 508,
    "ãİ": 105017,
    "Ġwrench": 60588,
    "(J": 16772,
    "rawl": 34783,
    "Ġbackstage": 90825,
    "orption": 66181,
    "(Level": 31363,
    "rabbit": 87445,
    "ĠAccountability": 84790,
    "ĠÙĤ": 78803,
    "modern": 50889,
    ":NSLayout": 90852,
    "IsValid": 56570,
    "*/),": 56130,
    "Ġpencil": 47218,
    "iego": 63387,
    "Ġbraz": 99086,
    "534": 22467,
    ".Ċ": 627,
    "ĠØ¯Ø±Ø¨": 106370,
    "Ġgiáº¥y": 106908,
    "edir": 101081,
    "||Ċ": 91775,
    "_UClass": 68189,
    "-P": 9483,
    "esidir": 122630,
    "api": 2113,
    "[keys": 93967,
    "middleware": 27722,
    "/INFO": 50057,
    "_continue": 76397,
    "rients": 32930,
    "Ron": 54925,
    "ĠMÃ¼ÅŁ": 120263,
    "ĠPetroleum": 73026,
    "ĠÎ¿Ïħ": 125400,
    "ÐµÑĤÐµÐ»ÑĮ": 115273,
    "Ġsucess": 78347,
    ".mainloop": 76264,
    "balances": 76527,
    "ĠyayÄ±m": 116432,
    "kÃ¼": 103594,
    "ĠSlots": 53448,
    "Ġmary": 85730,
    "_Entry": 95264,
    "TextUtils": 47352,
    "ĠĠčĊ": 10636,
    "_ep": 12759,
    "ĠAMS": 98370,
    "ĠDeferred": 76615,
    "Ġdissect": 75050,
    "Ġunintention": 70576,
    "ĠìĥĪë¡ľìļ´": 116453,
    "Ġcaf": 30203,
    "ĠSEA": 78911,
    "Ġ\"=": 38927,
    "fill": 7712,
    "Ø§ÙĬØª": 109312,
    "ĠSignUp": 58177,
    "installer": 64316,
    "à¥ĭà¤Ĺ": 100666,
    "ÂĮ": 114187,
    "ASIC": 45759,
    "shoot": 68392,
    "Ġ\"@\"": 97948,
    "ĠÐ´Ð¾Ð³Ð¾Ð²": 120223,
    "Ġcomputations": 83699,
    "_pcm": 60755,
    "ĠTrade": 17657,
    "Ġleases": 73657,
    "Ġestate": 12675,
    "Ġresc": 13208,
    "ynn": 59360,
    "ĠhodnÄĽ": 120283,
    "Ð²Ð¸Ñĩ": 106000,
    "ĠgameState": 56093,
    "ĠØ§Ø³Ù¾": 114385,
    "920": 18485,
    "-driven": 32505,
    "ĠFeatured": 51319,
    "Ġdeadlock": 94445,
    "Ġrequisite": 82780,
    "Ð´Ð°ÐµÑĤ": 111986,
    "Ġsubscribing": 40885,
    "ĠInterval": 41684,
    "Ġtapi": 99176,
    "ĠoluÅŁan": 114463,
    "_ng": 83202,
    "_profiles": 65121,
    "Ġoverwhelm": 96848,
    "dep": 15237,
    "ãĥĲãĤ¤": 119732,
    "ĠFountain": 78324,
    "ĠÐ½ÐµÑģÐºÐ¾Ð»ÑĮÐºÐ¾": 105553,
    "ĉVersion": 78947,
    "ĠAxios": 51314,
    "arton": 80596,
    "æŁ¥è¯¢": 52254,
    "Flip": 47908,
    "ĠSounds": 45241,
    "Ġbitter": 26242,
    "Ġmade": 1903,
    "_IDLE": 47490,
    "ĠĠĉĉ": 36429,
    ".Suppress": 53388,
    "à¥ĩà¤Ĥ": 100271,
    "Ġcatching": 34168,
    "ITH": 4243,
    "roker": 47085,
    ".coords": 45094,
    "à¹Īà¸²": 65841,
    "Ġeve": 49996,
    "(Server": 55589,
    "ivement": 91640,
    "ĠDomain": 21749,
    "Ġprecise": 24473,
    "ĠScriptures": 90296,
    "ĠØ§Ø®ØªØµ": 122046,
    "Ġchocolates": 100049,
    "inic": 93435,
    ".Est": 86072,
    "ĠÄĳen": 114703,
    "Ġhandgun": 57905,
    "ãĤ«ãĥ«": 115145,
    "_proba": 84122,
    "fram": 92604,
    ")),": 5850,
    "courses": 42424,
    "Î´Ïİ": 121339,
    "éļĽ": 104983,
    "ĠkuÅŁ": 112081,
    "Ġtrough": 79065,
    "Ġcohorts": 90388,
    "ĠÐ¡ÐµÐ¼": 119813,
    "=\"'.": 38417,
    ".capture": 61623,
    "ĠCongressman": 71483,
    "Ġdomination": 55949,
    "Ġbáº¡c": 123666,
    "Ġ'',Ċ": 7014,
    "/gallery": 69080,
    "Ġà¤ªà¥Ŀ": 125045,
    "theta": 16356,
    "ĠÐ·Ð°Ð½": 107242,
    "Ġçľģ": 124996,
    ".ru": 24497,
    "=s": 14481,
    "stÃ¤nd": 48735,
    "ĠÐ¿ÑĢÐ¾Ð´ÑĥÐºÑĤ": 107464,
    "(validation": 80513,
    "Ð°Ð½ÑģÐ¸": 122431,
    "ÑĥÐ½Ð´": 118918,
    "_main": 11273,
    "æĤ¨çļĦ": 127442,
    "Ġmigliori": 75841,
    "æĬĢ": 83301,
    "Ã±as": 61025,
    "-catching": 84424,
    "NSE": 72538,
    "exact": 47485,
    ".getLongitude": 98470,
    "Ġemergence": 49179,
    "Ġwrist": 33271,
    "ĠsituaciÃ³n": 79395,
    "\\Component": 15650,
    "à¹ģà¸ľà¸Ļ": 122174,
    "à¹ģà¸Ļà¸°": 120369,
    "eq": 11251,
    "ĠWell": 8489,
    "Ġlv": 29478,
    "_ob": 37422,
    "Ġconcealed": 44133,
    "Ġbalance": 8335,
    "ocol": 4650,
    "ĠpÅ¯vod": 111684,
    "uctive": 59923,
    "activate": 17281,
    "Ġìłķìĭł": 123323,
    "ĠSpan": 12168,
    "ibaba": 29360,
    "-rad": 95855,
    "-mount": 60688,
    "ĠKe": 6706,
    "Ġvivid": 43120,
    "ĠØ³ÙĬ": 104154,
    "ĠÐĴÐµÑĢ": 107447,
    "tru": 66353,
    "Ã¥r": 18382,
    "(column": 17725,
    "å¬": 115003,
    "ĠSCO": 64234,
    "ĠLEVEL": 43809,
    "ĠReform": 40365,
    "ĠArmenian": 67842,
    "æķ°æį®": 20675,
    "ĠLua": 38762,
    "ĠReputation": 89180,
    "Ġdiamonds": 49151,
    "Ġsecurities": 34919,
    "*)ĊĊ": 88836,
    "Ġglut": 35169,
    "ĠDanielle": 72716,
    "ĠSOME": 66655,
    "Ġter": 2024,
    "ëħ¸": 101687,
    "_TIMER": 32933,
    ",request": 88482,
    "Ġadmittedly": 79813,
    "nutrition": 83664,
    "Ġshrugged": 70756,
    "ìĽħ": 126119,
    "_left": 9774,
    "$fdata": 87941,
    "Ġmodifier": 23575,
    "è¯ī": 110309,
    "ĠÎŃÏĩÎµÎ¹": 107884,
    "éŃļ": 115371,
    "Checking": 41229,
    "Ø§Ø¦Ø²": 124608,
    "Ġuser": 1217,
    "ÎĳÎļ": 111697,
    "ĠpÅĻih": 116762,
    "Ø§Ø¹ÙĬØ©": 122105,
    "Ġå¼ł": 114325,
    "_dm": 58282,
    "ĠíĺĦëĮĢ": 122140,
    "-transition": 55601,
    "Ġcancel": 9299,
    "Ġheadlights": 88720,
    "ĠÐ°ÑĥÐ´": 125114,
    "ĠÐ³Ð¾Ð´": 100739,
    "[T": 20961,
    ".Provider": 37308,
    "_FRONT": 53015,
    "íķĺ": 16582,
    "ĠKits": 62993,
    "ĠObt": 57747,
    "ÑĩÐ¸Ð¼": 127753,
    "Ġ[ĊĊ": 52408,
    "Activate": 32342,
    "/Instruction": 77859,
    "spacing": 24329,
    "-heart": 43344,
    "ÙĥÙĪ": 112393,
    "!')ĊĊ": 100073,
    "Ġentire": 4553,
    "Ġfiberglass": 94311,
    "ĠstringValue": 79568,
    "/small": 97916,
    "Ġantib": 21196,
    "Ġnemus": 118497,
    "_products": 30722,
    "edriver": 72139,
    "á»įn": 80923,
    "ÏĥÎ·ÏĤ": 101542,
    "igi": 30637,
    "æĪ": 7688,
    "ĠSalad": 64646,
    "Ġmedium": 11298,
    ".Schema": 21786,
    "ĠForecast": 56775,
    "ĠBeÅŁ": 126382,
    "Ġwithdraw": 15142,
    "Photon": 94150,
    ".flink": 72156,
    "ĠDers": 126528,
    "ĠmÃ©": 32118,
    "ĠhÃłng": 62858,
    "Sa": 53379,
    "nz": 51924,
    "Ġprovozu": 124579,
    "Angles": 47554,
    "ĉĉĉĉĉĉĉĉĉĉĉĉĉ": 18005,
    "Ġcamp": 3190,
    "ĠCollections": 26394,
    "Ġlá»£i": 104033,
    "arrival": 78179,
    "ses": 9459,
    "Ġ<<": 1134,
    "ĉlib": 94559,
    "ĠStates": 4273,
    "ĠDisney": 16795,
    "Guid": 17100,
    ".ObjectMapper": 90508,
    "à¤¬": 100335,
    "ĠLatest": 29257,
    "')->__('": 94129,
    "Ġguide": 8641,
    "ĉcv": 42270,
    "Ġuygulama": 120009,
    "ĠAquarium": 81422,
    "é¡µ": 19047,
    "Ġmus": 3167,
    "viewModel": 74710,
    ".getCurrent": 22396,
    "Merge": 53196,
    "ĠÐ¿ÑĢÐ¾Ð¼": 104835,
    "estic": 10027,
    "Anywhere": 74425,
    "ØªØ±": 100337,
    "ĠÐ±ÑĥÐ´": 51570,
    "Ġantid": 90687,
    "Ġsets": 7437,
    "Ġçľ": 105694,
    "ĠKB": 26068,
    "Ã´le": 57332,
    "unwrap": 15818,
    "cod": 20720,
    "Ġpitch": 9846,
    "358": 17112,
    "ctor": 5009,
    "Ġbattleground": 91666,
    "ĠÐ»ÑĸÐºÐ°ÑĢ": 116744,
    "ĠÑĢÐ¾Ð±Ð¾ÑĤÐ°": 125760,
    "\"];ĊĊ": 32897,
    "ture": 5081,
    "ĠØ§ÙĩÙĦ": 111637,
    "Ġrecuper": 52621,
    "tb": 18894,
    "ĠCyan": 93243,
    "signal": 27720,
    "ATOR": 12121,
    "istically": 38210,
    "hyp": 79343,
    "éĿĻ": 106353,
    "ĠYep": 85294,
    "-ext": 67203,
    "bies": 57773,
    "Ġregress": 70880,
    "ĠRico": 34248,
    "Ġnhá»ı": 104197,
    ":\"-": 87889,
    "ĠHampton": 64774,
    ".fontSize": 60492,
    "Ġadher": 36051,
    "ĠCrime": 24845,
    "ĠColum": 14225,
    "ToRemove": 84705,
    "CheckBox": 24829,
    "ĉwrite": 25990,
    "ĠNotice": 25773,
    "Ġinsists": 43446,
    "Japanese": 52566,
    "Ġviruses": 42068,
    "FIT": 68854,
    "ternal": 15702,
    "Ġbbw": 41860,
    "conomics": 81192,
    ":I": 58255,
    "Ġvolcanic": 67164,
    "ĠÐ¸Ð¼Ñĥ": 120918,
    "ĠÐ¼Ð¾Ð¶ÑĥÑĤÑĮ": 107673,
    "Ø§Ø´Øª": 106552,
    "ĠAR": 6395,
    "arya": 73268,
    "Ġxmin": 57559,
    "ĠLets": 58166,
    "_CHO": 51716,
    "....": 1975,
    "ĠÐ¸Ð³ÑĢÐ°": 117630,
    "ĠØ¨ØªÙĪØ§ÙĨ": 118912,
    "Ù": 149,
    ".LINE": 82453,
    "Ð½ÑĭÐ¼": 100717,
    "Ġmiá»ĩng": 122631,
    "TECT": 35837,
    "Formatted": 44600,
    "chie": 5584,
    "_rot": 39356,
    "ãĥ¶æľĪ": 113746,
    "-central": 85181,
    "ç§ĭ": 107795,
    "Ġearth": 9578,
    "ÂłÐ±": 125645,
    ".machine": 78826,
    "extract": 24396,
    "ĠEstr": 82584,
    "ĠReliable": 92663,
    "ĠDamage": 21428,
    "closing": 86877,
    "%@": 85220,
    "iÃ§Ã£o": 39180,
    "phon": 52801,
    "Ġtolik": 125489,
    "Ð¸ÑĩÐ½Ð¾": 122564,
    "olle": 55148,
    "Ġvariables": 7482,
    "(strpos": 93027,
    "Mario": 79834,
    "Ġlithium": 57907,
    "Ã¢te": 69628,
    ".X": 4436,
    "Ġinstit": 7915,
    "ĠrÃ©cup": 79196,
    "Ġdotted": 59201,
    "alta": 69151,
    "ÐĴÑĸÐ½": 126219,
    ":date": 94363,
    "ï¼ģâĢĿĊĊ": 115684,
    "Win": 17400,
    "overview": 50378,
    "_alloc": 15146,
    "ĠBucket": 48868,
    "Ġimpl": 11866,
    "Framework": 15181,
    "be": 1395,
    "*'": 92352,
    "(comment": 40427,
    "Ġdazzling": 78088,
    "èĩªèº«": 116907,
    "jh": 75406,
    "ĠÑĦÐ¾Ð½": 111589,
    "ĠRestricted": 94960,
    "hea": 41033,
    "parity": 95468,
    "ÑĥÑĢÐ½": 108902,
    "ĠKata": 99938,
    "Ġairlines": 48458,
    "ĠÐ½ÐµÑģÐºÐ¾Ð»ÑĮ": 117064,
    "_message": 6598,
    "detach": 57864,
    "Ġconnector": 28087,
    "ĠØ§ÙĨÙĪØ§Ø¹": 110664,
    "ĠOff": 4206,
    "nf": 32837,
    "_,": 7022,
    "avourite": 52488,
    "LEVEL": 40977,
    "ĠProfile": 12609,
    "-banner": 71983,
    "Research": 28528,
    "++": 1044,
    "Mutex": 39199,
    "amework": 3426,
    "andise": 31770,
    "uras": 19879,
    "Ġbuffs": 72997,
    "_WINDOW": 25815,
    "crc": 67183,
    "pective": 9262,
    ".xxx": 98102,
    "ĠLet": 6914,
    "Ġesl": 98946,
    "Ġfrivol": 96524,
    "Ġà¤¦à¤²": 115767,
    "('.')": 80368,
    "management": 43573,
    ")];čĊ": 72576,
    "adaki": 119043,
    "Ġtele": 8122,
    "ilio": 34429,
    "ĠWoche": 82540,
    "[]čĊ": 96355,
    "ĠIncident": 69835,
    ".factor": 84934,
    "_IGNORE": 51074,
    "-room": 48840,
    "ildenafil": 66186,
    "ruz": 63423,
    "Ġcolon": 15235,
    "ÐłÐ¾Ð·": 116727,
    "ĠCLR": 61790,
    "ĠÑĤÐµÑĩÐµÐ½Ð¸Ðµ": 109742,
    "ĠÙĪØ²ÙĨ": 119987,
    "(fig": 34110,
    "ÙĢÙĦ": 127325,
    "evin": 14616,
    ".make": 10325,
    "inar": 14080,
    "enton": 75072,
    "Ġassaulted": 46671,
    "Ring": 44566,
    "Ð½Ð¾ÑģÑĤ": 100846,
    "/application": 34132,
    "Ã¡mara": 85101,
    "ĠREQUIRE": 29072,
    "ci": 5979,
    "ĠJama": 41259,
    "\"Now": 83524,
    "ĠĠĠĠčĊčĊ": 60049,
    "Ġverdade": 82685,
    "STEP": 51489,
    "Ġsrdce": 126917,
    "cia": 25088,
    "Ġinsider": 55465,
    "ĠBarnes": 44954,
    "enez": 21198,
    "PROP": 76694,
    "åį³": 92776,
    ".bits": 39540,
    "ishments": 100053,
    "ĠìĨĮê°ľ": 124827,
    "Ġdesktop": 17963,
    "ĠEB": 50242,
    "_study": 86681,
    "ĠespaÃ±ol": 70988,
    "ĠVine": 50795,
    "Effective": 68639,
    "Ġbackups": 60766,
    "Ġroster": 22162,
    "à¸«à¸¡à¸²à¸¢": 107017,
    "abc": 13997,
    "Ġink": 27513,
    "/index": 9199,
    "ĠStephanie": 49243,
    "ĠCongressional": 39473,
    "ĠTrash": 71723,
    "Ġft": 10702,
    "Ø³Øª": 47686,
    "(resultSet": 65557,
    "619": 23388,
    "Æ°á»Ł": 101296,
    "ĠÄ°n": 104671,
    "Ġtah": 91193,
    "ØŃØµ": 112588,
    "ĠRepresentation": 79146,
    "ĠÑģÑĢÐ°Ð·Ñĥ": 111082,
    "å®ŀæĸ½": 118890,
    "åįĶ": 108975,
    "needed": 41917,
    "Ġoss": 31159,
    "ĠÐ·ÑĥÐ±": 109170,
    "Ġloi": 82291,
    "Compiler": 39506,
    "ÑĢÑĸÐ·": 108328,
    "queen": 94214,
    "Nintendo": 87079,
    "Ġhá»įp": 117065,
    "/ioutil": 62346,
    "ĠDust": 33093,
    "ĠhodnocenÃŃ": 123713,
    "Ġmunicip": 20188,
    "ĠØ¯ÙĬØ³ÙħØ¨Ø±": 119018,
    "aliases": 35024,
    "ĠpÅĻesnÄĽ": 121016,
    "ĠComposition": 68206,
    ".Fl": 74559,
    "Ġprojectile": 39057,
    "Ġservlet": 37596,
    "èĲ½": 102936,
    "Failed": 9595,
    "ĠdateFormatter": 70876,
    ".interpolate": 82753,
    "Ġsuppliers": 20972,
    "ĠØĽ": 112739,
    "ĠÐ²Ð¾Ð´Ñĭ": 108756,
    "artisanlib": 81259,
    "ĠÃĩ": 64105,
    "Ġthem": 1124,
    "Ġradix": 76758,
    ".cent": 76689,
    "ĠPATCH": 60445,
    "Ġblaze": 63573,
    "ign": 625,
    "éľ²åĩº": 124721,
    "Ġconsequential": 91183,
    "ĠÃ¼Ã§": 104610,
    "ĠÃĸz": 103867,
    "ĠArms": 44716,
    "_diag": 62404,
    ".solve": 70202,
    "ĠgiÃł": 72552,
    "122": 8259,
    "Ġanthrop": 41416,
    "åºĵ": 46056,
    "Ġwooded": 94471,
    "-ie": 88427,
    "ĠCalgary": 38975,
    "<p": 8085,
    "lichkeit": 89285,
    ".getComponent": 62957,
    ".scenes": 97952,
    "Ø§ÙĦØ¨": 104546,
    "_requirements": 90732,
    "ĠÐ²Ð¾": 100797,
    "ĠBooker": 66095,
    "Ġváº¿t": 124715,
    ".species": 99339,
    "ĠphoneNumber": 43188,
    "Ġdesperation": 74424,
    "ĠSquare": 15992,
    "Ġkurul": 104387,
    "Ġbefore": 1603,
    "âĢĥ": 116503,
    "crime": 85454,
    "931": 25717,
    "ÐºÑĢÐ°ÑĹÐ½": 103523,
    "ĠStatus": 8266,
    "ĠonDataChange": 100008,
    "ĠaprÃ¨s": 42138,
    "ĠogsÃ¥": 49487,
    "ìľłë¨¸": 125537,
    "ĠzÃ¡": 100637,
    "_IC": 23817,
    ".kafka": 57538,
    "elib": 62318,
    "ĠbÃ¡c": 115022,
    "Ġhabits": 26870,
    "Ġinitiative": 20770,
    "ĠÙħØªØ¹Ø¯Ø¯": 123834,
    "ĠìķĪìłĦ": 116281,
    "Ġtrespass": 75330,
    "ativity": 44515,
    "341": 16546,
    "ĉdispatch": 61172,
    "ĠÐºÐ¸ÑĪ": 112439,
    ",image": 59592,
    "ĠFairfield": 88529,
    "/settings": 30966,
    "ieber": 61341,
    "ĠTomÃ¡Å¡": 124589,
    "ĠWilson": 17882,
    "ï¼ŁâĢĿĊĊ": 108949,
    "ĠWallpaper": 71896,
    "Flow": 19410,
    "ĠSmall": 15344,
    "Ġcipher": 32188,
    "ĠéŁĵ": 125822,
    "ĠYas": 71028,
    "Ġscenic": 62081,
    "ê´Ģë¦¬": 106974,
    "ĠCLAIM": 26910,
    "ĠÐ¾ÑĢÐ¸Ð³": 118309,
    "_mr": 93958,
    "ucene": 59154,
    "Ġssize": 44051,
    "ĠÄĲá»ĭa": 121653,
    "Ġevacuate": 90089,
    "Ġthree": 2380,
    ".mContext": 98913,
    "Selectors": 98095,
    "Â©Â©": 116628,
    "ĠRead": 4557,
    "addElement": 77393,
    "Ġcoins": 19289,
    "_losses": 67262,
    "Ġcreams": 81316,
    "Ġmaps": 14370,
    "SerializedName": 25479,
    "iver": 1553,
    "Ġforall": 32747,
    "Ġnoct": 93101,
    "ĠÏĩÏģÎ®ÏĥÎ·": 126793,
    "ÑİÐ½": 127147,
    "ĠMinerals": 84886,
    "ĉsystem": 41393,
    "Ġnhá»±a": 119278,
    "ĠÏĩÏģÎ®": 111804,
    "ular": 1299,
    "::Ċ": 50677,
    "ĠTor": 8611,
    "AW": 14757,
    "ProductName": 72203,
    "ĠAffiliate": 64216,
    "Ġresembled": 96858,
    "_magic": 55712,
    "error": 850,
    "language": 11789,
    "æģĴ": 118850,
    "èĪŀ": 107875,
    "_data": 1807,
    "InView": 93030,
    "_vehicle": 65108,
    "Ġclashed": 98506,
    "ĠolmasÄ±": 104337,
    "ĠCamden": 83568,
    ".tom": 74594,
    "ĠPHY": 58341,
    "ĠÐ³Ð¸Ð¿": 113768,
    "à¥ģà¤®à¤¤": 123620,
    "ĠTap": 37234,
    "ĠMerr": 48961,
    "Ġidentity": 9764,
    "Ġinteger": 7698,
    "ĠgroÃŁ": 67823,
    "Ġevapor": 60150,
    "TabIndex": 99709,
    "ĠProduct": 5761,
    "(res": 4693,
    "ĠwÃ¼r": 44343,
    "ä»£": 31640,
    "ĠÐ²ÑĸÐ´ÐºÑĢÐ¸ÑĤ": 114342,
    "ĠÐ§ÑĤÐ¾Ð±Ñĭ": 118317,
    "Ñī": 14476,
    "ãģĦãģŁ": 102334,
    "##ĊĊ": 53424,
    "omat": 81868,
    "ĠØ§ÙĦØ¹Ø±Ø§ÙĤ": 119634,
    "ãĢģãĢİ": 124620,
    "uran": 27105,
    "Ð°Ð²Ð¸Ñģ": 121647,
    "Beat": 44758,
    "Ġmaks": 90244,
    "ĠAtmos": 54928,
    "Ġdeliveries": 55659,
    "ĠRI": 48597,
    "ĠDante": 74400,
    "è¨Ĭ": 112006,
    "qt": 23913,
    "-n": 5392,
    "_Date": 40664,
    "Ø·ÙĤØ©": 119387,
    "ĠÙĨÙĤØ´Ùĩ": 119055,
    "Restricted": 87505,
    ".Account": 31977,
    "ĠTough": 78154,
    "Ġà¹Ĥà¸Ķà¸¢": 103936,
    "Dis": 4944,
    "ĠIntegr": 30101,
    "ĠCroatian": 100170,
    "ĠCumhurbaÅŁkanÄ±": 127913,
    "Ġcollided": 79990,
    "atype": 20764,
    "Ġrip": 24169,
    "Ġscroll": 9236,
    "ĠÐºÐ°Ð»ÑĮ": 127973,
    "(child": 18272,
    "Ġskal": 42913,
    "ĠÃ§ocu": 115481,
    "Ġ])ĊĊ": 58093,
    ".AutoField": 55627,
    "bab": 48822,
    "Ġabl": 98492,
    "Ġanmeld": 62161,
    "Ġendowed": 98728,
    "è°ĥçĶ¨": 120108,
    "ĠHAVE": 19102,
    "ĠimageSize": 88659,
    "ĠFerd": 83427,
    "cz": 14088,
    "jf": 97523,
    "Ġhandful": 23810,
    "&D": 33465,
    "ĠÑĤÐµÑĢÐ°Ð¿": 114629,
    "Ġdungeon": 43539,
    "ÑĢÐµÐ»": 119804,
    "Names": 8139,
    "ÃŃveis": 75707,
    "ILog": 66009,
    "_ENT": 16639,
    "Ġbam": 42404,
    "Ġlicking": 67231,
    "_migration": 91473,
    "adro": 90776,
    ".connect": 11034,
    "Ġblind": 18507,
    "ÑĨÑĸÑĶÑİ": 110556,
    "833": 22904,
    "collapsed": 43128,
    "_social": 52296,
    "Fault": 59880,
    ".Qual": 99918,
    ".LE": 10147,
    ".jp": 33328,
    "(Entity": 34861,
    "_go": 26596,
    "ispiel": 69157,
    "Ġopioids": 84460,
    "Ġverg": 38901,
    "Ġpasture": 89355,
    "ĠGon": 80806,
    "Ġ};": 20667,
    ".company": 28020,
    "Ð¾Ñĥ": 127377,
    "ĉCollection": 95220,
    "ĠHop": 26634,
    "Ġmessenger": 50596,
    "ĠMunich": 47304,
    "Ġbreve": 98519,
    "tournament": 89179,
    "Ġacademy": 44445,
    "Jennifer": 72526,
    "Ġlocally": 24392,
    "Ġpng": 37251,
    "ĠìŀĲìĦ¸": 123154,
    "_positions": 38319,
    "Ġ`;Ċ": 65517,
    "ĠØ¢Ø´": 113166,
    "ĠHuman": 11344,
    "ĠRegisters": 55874,
    "uco": 95514,
    "ĠDe": 1611,
    "_UNIQUE": 91430,
    "val": 838,
    "Ġ\\(": 18240,
    "kal": 36641,
    "ĠJurassic": 84474,
    "ÑĸÐ»": 101425,
    "mdat": 81721,
    "ĠtextAlign": 24718,
    "Ġ//////////////////////////////////////////////////////////////////////": 96280,
    "Ġleaf": 16312,
    "'re": 2351,
    "Ġdisplays": 19207,
    "ĠmÄĽ": 100729,
    ".Preference": 90946,
    "Ġcalam": 80933,
    "overrides": 84458,
    "Ġaspiration": 98741,
    "buff": 27066,
    "Ġpensar": 94151,
    "âĢ¦ĊĊĊ": 66679,
    "_sv": 77908,
    "ĠØ§ÙĦØªØµ": 121638,
    "ĠÙĪØ§": 112858,
    "Ð»Ð¸Ð²Ñĸ": 119187,
    "ĉresp": 35753,
    "Ġchiá»ģu": 111317,
    "Ġtoc": 55961,
    ":first": 54474,
    "scale": 12727,
    "Proveedor": 98206,
    "ĠUsing": 12362,
    "Ġirrational": 61754,
    "Ġvat": 79626,
    ".CreateTable": 56146,
    "-w": 2695,
    "Pipeline": 35756,
    "Î¸Î·": 101733,
    "ĠAwareness": 63135,
    "Reuse": 39181,
    "ÑĥÐµÑĤ": 73181,
    "ĠHou": 60700,
    "Ġgenesis": 60466,
    "Ġpont": 37194,
    ".Sp": 49401,
    "ç»Ħ": 41127,
    "ĠBye": 90425,
    "Ġze": 14017,
    ".Obj": 91291,
    "PEG": 22836,
    "FLAG": 23358,
    "ìĤ¬ìĹħ": 113735,
    "isodes": 15081,
    "Ġexceptionally": 48298,
    "ĠMCP": 80248,
    "Ġequipos": 92952,
    "bindParam": 34916,
    "Ø§ØªÙģ": 121363,
    "èŃ°": 104760,
    "Ġtaper": 55035,
    "ĉrs": 42331,
    "-how": 58523,
    "_FRAGMENT": 67257,
    "ĠACM": 90315,
    "cal": 5531,
    "Ġpurely": 32227,
    "Collider": 37897,
    "ĠNhÆ°": 120452,
    "egt": 51759,
    "'t": 956,
    "ĠDiss": 52132,
    "ĠPond": 71965,
    "ĠÐºÐ°Ð¿Ð¸ÑĤ": 116370,
    "ĠScenes": 84283,
    "nv": 38041,
    "ĠMODULE": 41474,
    "Ġzoek": 74900,
    "Ġkids": 6980,
    "lernen": 79977,
    ".reducer": 87526,
    "ĠCorrect": 41070,
    "Ġsuperclass": 78714,
    "vor": 37215,
    "ziehung": 76091,
    "_slug": 32124,
    "ngth": 6858,
    "ĠCyc": 82081,
    "amic": 4079,
    "=document": 34641,
    "Ġtablesp": 38190,
    "Grid": 3627,
    ".school": 67160,
    "143": 10290,
    "Ð°Ð·Ð²Ð°Ð½Ð¸Ðµ": 69238,
    "ĠHay": 18276,
    ".DAY": 63616,
    "iju": 64274,
    "å¥ĸ": 105887,
    "regions": 58808,
    "_dns": 72225,
    "apk": 94912,
    "Ġruins": 46762,
    "Information": 15218,
    "_Y": 10851,
    "ĠÐ³ÑĢÑĥÐ¿Ð¿": 107736,
    "ÙıÙĪØ§": 120535,
    "Ġanswer": 4320,
    "ĠØ§Ø±ØªØ¨Ø§Ø·": 109940,
    "Ġreson": 29280,
    "Ġfurnished": 24330,
    "Ġsafely": 21676,
    "chair": 35296,
    ".PrimaryKey": 48563,
    "MULT": 68595,
    "_notifier": 87279,
    "Ġrahat": 107741,
    "Ġroad": 5754,
    "ÏĩÎµÎ¯Î±": 115325,
    "married": 70582,
    "Ġ`Ċ": 22849,
    "ç·Ĭ": 126238,
    "Ġshoulder": 17308,
    "ORAGE": 28808,
    "VERAGE": 61927,
    "ĠUserDetails": 89386,
    "Ġç´": 105490,
    "ĠzajÃŃmav": 118799,
    "Ġupstream": 42830,
    "ĉoutput": 21858,
    "ĠSuite": 21652,
    "ĠÐ¾ÑĤÐ¼ÐµÑĤ": 119146,
    "ĠĊĊĊ": 15073,
    "ĠIOException": 9530,
    "::*;Ċ": 57262,
    "æľĢçµĤ": 124042,
    ".prompt": 66499,
    "ĠÎ¼ÎµÎ³": 108003,
    "tÃ¼": 103144,
    "ĠÑħÐ¸Ð¼Ð¸": 121428,
    "(vector": 19606,
    "Ġdieses": 47768,
    "*);Ċ": 37982,
    "Ġscen": 7681,
    "_blank": 57203,
    "(Address": 69592,
    "Ġbirthdays": 92950,
    "_SCREEN": 43499,
    "_lbl": 55419,
    "Matcher": 38654,
    "Ġaccommod": 14252,
    "Ġdolay": 107733,
    "ï½¡": 112004,
    "-selected": 46340,
    "KB": 30962,
    "Ġfod": 62529,
    "='": 1151,
    "ï¾ŀ": 101937,
    "tÄĽl": 127124,
    "ĠGridBagConstraints": 53023,
    "pare": 3462,
    "=batch": 72898,
    ".ax": 39548,
    "ä¿Ĥ": 108826,
    "ĠBracket": 86597,
    "ĠWordPress": 20394,
    "Ġeditions": 47634,
    "82": 6086,
    "masÄ±": 77024,
    "/cat": 93907,
    "âĢĻdeki": 123891,
    "Ġviewpoint": 59485,
    "Ġbilm": 110269,
    "alen": 36749,
    "losures": 42306,
    "ãģ«åĩº": 117158,
    "\"\"Ċ": 90362,
    "CONFIG": 25677,
    "ĠbaÅŁlayan": 120699,
    "Ctrl": 15351,
    "Ġ**Ċ": 38014,
    "Ġincom": 53990,
    "Ġinherit": 24683,
    "ĠRefresh": 30107,
    "Ġyaml": 33346,
    "ĠJsonResult": 59278,
    "Ġrelevant": 9959,
    "âĢľIf": 38684,
    "Ã¹ng": 89871,
    "ĠÎ£Ïĩ": 123291,
    "/ts": 100146,
    "ĠOBS": 76960,
    "(ship": 92499,
    "Ġnovembre": 83615,
    "ĠBru": 19215,
    "199": 2550,
    "ĠSum": 8279,
    ".SerializeObject": 57136,
    "ificaciÃ³n": 53507,
    "ĠChá»ī": 115652,
    "å®": 8676,
    "Ġexert": 43844,
    "Ġexpulsion": 95989,
    "ĠBusy": 95809,
    "ĠAccom": 54064,
    "Ġalgo": 29028,
    "_mutex": 14538,
    "Ġstutter": 91637,
    "Ġdur": 10878,
    "sequential": 93450,
    "press": 1911,
    "ĠMov": 54385,
    ".Stat": 54519,
    "atto": 17173,
    "Ġileri": 115650,
    "Ġ%=": 50232,
    "ĠÐ¿ÑĸÐ´Ð³Ð¾ÑĤÐ¾Ð²": 116315,
    "ÑģÐºÐ»Ð°Ð´": 116655,
    "weeted": 60708,
    "£i": 103180,
    "ï¼Įå°ı": 122414,
    "Ġmarket": 3157,
    "Ġinmates": 42712,
    "Ġsuggests": 13533,
    "dbc": 15245,
    "Ġz": 1167,
    "ĠÑģÐ¾Ñĩ": 113975,
    "<|reserved_special_token_86|>": 128094,
    "tv": 23001,
    "responsive": 52397,
    "Ġexamples": 10507,
    "ĠÐ¿ÐµÑĢÐµÐ´": 78757,
    "ncy": 21397,
    "ĠTender": 94967,
    "ãĢĤ<": 90493,
    "vap": 116613,
    "icerca": 73762,
    "Ġweighting": 90039,
    "ngrx": 76284,
    "ļ": 248,
    "hipster": 97088,
    "ĠHands": 43396,
    "ANCH": 43033,
    "Subtitle": 74722,
    "ĠPayload": 54016,
    "Ġroles": 13073,
    "ĠPot": 14020,
    "bay": 47364,
    "=./": 98283,
    "591": 24380,
    "acios": 80945,
    "ÑĢÑĥÑİÑĤ": 116574,
    "ilos": 90419,
    "èģĶçĽŁ": 123728,
    ",cp": 53853,
    "ëĤ¸": 121751,
    "ekil": 126946,
    "ibration": 18856,
    "Mur": 60978,
    "iators": 81390,
    "ëī´ìĬ¤": 121096,
    "ĊĊĊĊĊĊĊĊĊĊĊĊĊĊ": 67476,
    "Ġassail": 79788,
    "ethereum": 68222,
    "PLIT": 52697,
    "Ġolds": 79573,
    "Ġenorme": 68906,
    "either": 50998,
    "_sensor": 29999,
    "Ġoperators": 20197,
    "aspberry": 37062,
    "Ġciphertext": 70889,
    ",Object": 40557,
    ".Api": 21721,
    "restrict": 28998,
    "Ġinflammatory": 47288,
    "ĠÐļÐ¾Ð´": 112951,
    "fcc": 74075,
    "Ġreliability": 31638,
    ".after": 41706,
    "æħ¢": 110020,
    "_throw": 73261,
    "GRAPH": 41084,
    "åĽ½": 29504,
    "Ġ(*((": 83479,
    "Ġblown": 36574,
    "-acre": 64434,
    "Ġgemacht": 70976,
    "inky": 39134,
    "ĠÑģÐ¾ÑĨÑĸ": 106615,
    ".setPrototypeOf": 99185,
    "atur": 2693,
    ".atomic": 69382,
    "ĠNhÃ¢n": 114278,
    "Ġputas": 42924,
    "Ġsinister": 63667,
    "artment": 3275,
    "çļĦåľ°": 126315,
    "ĠçŁ¥": 119041,
    "Gate": 43418,
    "([...": 83566,
    "_AES": 70481,
    "ĠCentro": 57674,
    "itech": 61882,
    "Az": 38299,
    "yect": 24420,
    "atÄ±cÄ±": 124829,
    "('',": 24197,
    "ĠInvocation": 79593,
    "visible": 12887,
    "Ġmezun": 126085,
    "HQ": 90719,
    "_bulk": 72492,
    "Ġprecio": 37620,
    "_profit": 73142,
    "ĠVAT": 48692,
    "Ġemerging": 24084,
    "_SIGNATURE": 74852,
    "Ġmatrices": 36295,
    "ToolStrip": 15929,
    "éĤ®ç®±": 94668,
    "/M": 10482,
    "upon": 59723,
    "ĉSend": 72852,
    "łģ": 16050,
    ".Undef": 33628,
    "/Register": 82369,
    "sizes": 54255,
    "_Un": 41787,
    "MU": 60274,
    "Ġtracer": 65406,
    "Ġunderst": 14653,
    "Ġhart": 75028,
    "Ġê±°": 101429,
    ".\"/": 52661,
    "ographically": 65031,
    "ĠAccounts": 41755,
    "ĠRicht": 58223,
    "Ġï¾Ĭ": 112381,
    ",__": 68520,
    "ĠØ§ÙĦØ¹Ø§ÙħØ©": 117942,
    "Ġlabore": 73304,
    "Wake": 91848,
    "day": 1316,
    "-N": 11500,
    "Ġìĸ´ëĸ": 105547,
    "Ġforest": 13952,
    ".on": 3572,
    ";charset": 46117,
    "velocity": 14982,
    "ÏģÏīÎ½": 121442,
    "Ġexcess": 13937,
    "ÐµÐ¼Ð°ÑĤÐ¸": 119922,
    "Ġdyn": 32170,
    "á»īnh": 113593,
    ".statusText": 75784,
    "Ġinfants": 42534,
    "Ġunstable": 45311,
    ".HttpContext": 76942,
    "SEARCH": 44645,
    "Ġcats": 19987,
    "ï¼ļ</": 47436,
    "ĠKolkata": 82634,
    "ĠÄĳáº·c": 103519,
    "ĠâĶľâĶĢâĶĢ": 81593,
    "SHIP": 71320,
    "-fluid": 17878,
    "vern": 76852,
    "ĠUK": 6560,
    "nosis": 76205,
    "DrawerToggle": 89344,
    "ìŀħ": 44966,
    "à¹Įà¸¥": 113422,
    "Ð¸Ð»": 64292,
    "ĠKeep": 13969,
    "ĠdÃ©f": 47371,
    "Ġreg": 1239,
    "yah": 95780,
    "âĢľThat": 49977,
    "Ġhovered": 91551,
    "Ġsol": 2092,
    "ĠMontreal": 30613,
    "ĠRamos": 69913,
    "à¥Ī?Ċ": 126980,
    "Ġud": 28092,
    "ĠCa": 14751,
    "ÏĩÎ®ÏĤ": 125868,
    ":async": 93903,
    "Ġê½": 114417,
    "/storage": 54445,
    "etadata": 7758,
    "ult": 495,
    "ĠAttacks": 67242,
    "ns": 4511,
    "ĠYe": 32269,
    "Ġrhs": 13212,
    "Ġzug": 86011,
    "Ġtraff": 8422,
    "_fore": 36663,
    "svg": 15551,
    "Ġwrit": 2155,
    "_cap": 16793,
    "uts": 6256,
    "ĠNimbus": 72593,
    "Ġnouve": 77701,
    "ĠØ§Øª": 102570,
    "_vue": 70247,
    "Ġdetached": 45017,
    "Ġreinforcement": 72378,
    "jQuery": 29104,
    "Ġanimation": 10571,
    "Read": 4518,
    "ĠHiring": 89297,
    "Ġshape": 6211,
    "brown": 65561,
    "ĠAlerts": 69408,
    "254": 12375,
    "ĠLep": 121688,
    "ĠonStart": 58213,
    "Ġpathway": 38970,
    "olvable": 89197,
    "ĠuloÅ¾": 121999,
    "Ġsatisfies": 69001,
    "imar": 88456,
    "ĠChina": 5734,
    ".split": 5402,
    ".deltaTime": 29858,
    "ĉactor": 94510,
    "manÄ±z": 109351,
    "Query": 2929,
    "Ġ'*": 15224,
    "ĠDi": 7923,
    "ĠpageTitle": 88321,
    "ĠhatÄ±r": 113035,
    ".model": 3272,
    "Ġanch": 34330,
    "Ġnháº¥n": 118875,
    "ĠtoolStrip": 48002,
    "Ġ-->čĊ": 16336,
    "ĠDirected": 78305,
    "ĠÐ´ÑĥÐ¶Ðµ": 106291,
    "reamble": 87806,
    "Ġà¤ķà¤¡": 119034,
    "erdem": 88883,
    "Ġjealousy": 80822,
    "æ¬§": 104959,
    "Ġloc": 1353,
    "Ġresignation": 44734,
    "_handles": 69117,
    "ĠÐ¸Ð½ÑģÑĤÑĢÑĥÐ¼ÐµÐ½ÑĤ": 124400,
    ".creation": 98606,
    "Ġê¸°ê°Ħ": 118433,
    ":": 25,
    "'er": 94678,
    "ĠÐ¿Ð¾ÑĤÐµÑĢ": 122199,
    "ĠAÄŁustos": 113089,
    "ä½¿": 33655,
    "ĠProdu": 12311,
    "ĠValk": 86262,
    "Ġguilty": 16390,
    "nÃŃ": 55122,
    "ĠÏĩÎ±ÏģÎ±": 121720,
    "ëģĶ": 125974,
    "itzerland": 27521,
    "/IP": 85538,
    "ÑģÑĤÑĢÑĥÐºÑĤÐ¾ÑĢ": 89410,
    "ï¼½": 119185,
    "Ġopenly": 30447,
    "Ġscramble": 77387,
    ".transparent": 78496,
    "USH": 20088,
    "ĠanalÃ½": 123877,
    "Ġrespecting": 69515,
    ".ptr": 39840,
    ".inject": 25115,
    "Ġprovisions": 19705,
    "Ġseguir": 58548,
    "Ġbrowsers": 33957,
    "à¹ĩà¸ķà¸²à¸¡": 127003,
    "ĠÐļÐ¾Ð½ÑģÑĤÐ¸ÑĤÑĥ": 123932,
    "Ġìħ": 113375,
    "Ġquatre": 99309,
    "á½·": 121582,
    "Ġsuspects": 30861,
    "ĠåĪ": 20033,
    "_VIEW": 25373,
    "Ġcheer": 26085,
    "Ġmotive": 47094,
    "Ġhmm": 88601,
    "Ġcomplementary": 58535,
    "Ġevitar": 71908,
    "(args": 7506,
    "Pair": 12725,
    "-provider": 82632,
    "Ġdevez": 87040,
    "Ġpii": 75130,
    "Ġinflicted": 69177,
    "å¥ī": 121299,
    "Ġapp": 917,
    "Ġä¹ĭ": 107215,
    "ĠExists": 73526,
    "æł¡": 101467,
    ".GetValue": 26901,
    "$html": 33466,
    "Ð»Ð°Ð±": 108230,
    "ĠØŃØ¶Ø±Øª": 113003,
    "Ġsert": 113147,
    "ìĹ¼": 113360,
    "_AUDIO": 39102,
    "ĠÑĨÐ¸Ðº": 119021,
    "Ġucfirst": 68021,
    "Ġä¸ª": 109820,
    "Streaming": 77609,
    "266": 15999,
    "Ġadditions": 38314,
    "Ġhomosex": 28408,
    "ĠÑģÐ¸Ð»Ñĭ": 127403,
    "Italic": 86392,
    "é³": 107040,
    "ĠÙĪØ¹": 106047,
    "=\").": 76344,
    "ibs": 55441,
    "ĠChandler": 61448,
    "Ġà¤ħà¤«": 116212,
    "Ġcups": 26446,
    "ĠContr": 35341,
    "Ġhormones": 44315,
    "ujemy": 83428,
    "Ġadvant": 8030,
    "ĠBale": 84230,
    "-pe": 96751,
    "/meta": 70307,
    "âĢĶand": 17223,
    "_SECOND": 57324,
    "ĠWilliamson": 69631,
    "],ĊĊ": 50188,
    "Ġfearful": 63757,
    "âĢ¦it": 100067,
    "Ġele": 10732,
    "ĠWAL": 74892,
    "_ANGLE": 80034,
    "Ġdecorator": 51778,
    "porn": 57750,
    "ĠES": 19844,
    "ä½ľ": 19967,
    "ëıĦë¡ľ": 116353,
    "_perm": 33061,
    "ĠØŃØ§ÙĦØ©": 123109,
    "Ġwrath": 64391,
    "Ġtweaking": 89347,
    "Paren": 85097,
    "Oops": 56372,
    "ViewController": 6770,
    "ĠAutor": 57972,
    "à¸µà¸¢à¸į": 117721,
    "ĠCompletely": 86214,
    "Ġbalanced": 24770,
    ".forEach": 9033,
    "Ġhospital": 8952,
    "Ġdenied": 15164,
    ".Nombre": 72420,
    "ĠAustralia": 8494,
    "oland": 97540,
    "ĠCel": 47643,
    "MainThread": 83312,
    "ÎĨ": 124128,
    "ĠNgModule": 28923,
    "ĠProcessing": 29225,
    "ĠSession": 9343,
    "ĠUIScreen": 89107,
    "Ġconc": 3613,
    "_rb": 69644,
    "Ġoutrage": 30229,
    ".imshow": 30186,
    "ĠCanberra": 69890,
    "Ġdoz": 113546,
    "arak": 28985,
    "ìŀ¬": 58232,
    "ĠConnecticut": 31461,
    "Î´Î±ÏĤ": 115854,
    "032": 21040,
    "ý": 185,
    "ĠRolled": 94491,
    "LocalizedString": 40548,
    "ptides": 74489,
    "Ð½ÑĥÐ»": 107876,
    "ĠRequired": 12948,
    "Ġdc": 19966,
    "ĠÎĶE": 101031,
    "ĠÐ´Ð¾": 57297,
    "ĠTit": 24977,
    "lasÄ±": 114973,
    "Ġburger": 45723,
    "PHONE": 76098,
    "trying": 85134,
    "Ġchairs": 26993,
    "Ġtorino": 71543,
    "+s": 68897,
    "Sol": 49912,
    "Ġanak": 84355,
    "Ġspoiler": 73306,
    "Ġayant": 86871,
    "Ġyiy": 120103,
    "Terr": 52502,
    "_agg": 84634,
    "ÐĴÑĤ": 122209,
    "loit": 79649,
    "amment": 64656,
    "Ġpassionate": 25429,
    "ĠKro": 68917,
    "<<<<": 36784,
    "Hen": 50461,
    "urret": 42454,
    "Ġrude": 47101,
    "Ġê¸°ìŀĲ": 126887,
    "_|": 36495,
    "ĠĠĠĠĠĠĠĠĠĠĠĠĠĠĠĠĠĠĠĠĠĠĠĠčĊ": 66417,
    "_HS": 82932,
    "Ġ\";\"": 67250,
    "ĠMilwaukee": 36918,
    "ĠShot": 33447,
    "icism": 42914,
    "åĩºäºĨ": 113433,
    "ĠWebster": 64377,
    "ĠWilde": 90023,
    "ĠLar": 32404,
    "Ġreactionary": 96238,
    "Ġasserting": 43525,
    ".za": 86232,
    "Ġnobody": 19093,
    "_deposit": 86898,
    "ĠìķĮê³ł": 115877,
    "large": 17185,
    "Known": 49306,
    "Ġ//!": 18131,
    "_ALIGN": 37788,
    "ĠARP": 92437,
    "ĠforIndexPath": 99756,
    "PHY": 75945,
    "Ġlev": 23464,
    "iven": 2116,
    "ĠSurgical": 71212,
    "ĠØŃÙĤÙĪÙĤ": 107331,
    "Ġhorizon": 35174,
    "ĠneboÅ¥": 120736,
    "(blank": 58962,
    "_skills": 94080,
    "Culture": 26896,
    "ĠNvidia": 62467,
    "ĠStein": 35606,
    "Ġgehen": 63559,
    "Ġà¸ģà¸£à¸°": 118342,
    "ĠPPC": 70827,
    "ĠÐŁÐ¾ÑįÑĤÐ¾Ð¼Ñĥ": 112079,
    "feas": 90377,
    "Ð¸ÑĢÐ°": 105953,
    "aji": 42888,
    "ableViewController": 96006,
    "ĠLicense": 1914,
    "Ġbd": 22206,
    "ĠtoArray": 79290,
    "oÅĪ": 127953,
    "Cour": 44349,
    "ĠOpening": 41137,
    "Ð»ÐµÐ½Ð¸Ñı": 62776,
    ".\"'\";Ċ": 93313,
    ")]": 7400,
    "Ġvests": 98373,
    "ickÃ©": 101318,
    "|}Ċ": 71369,
    "ĠÑģÑĤÐ°Ð´": 114766,
    "_draft": 92439,
    "Ġpleasantly": 82374,
    "çľĮ": 72099,
    "_locs": 98013,
    "Ġreversed": 28537,
    "PlainText": 74348,
    "Ġarbit": 17114,
    "laus": 58329,
    "ĠÙĬØ´": 119284,
    "Ġptr": 10295,
    "Ġë¬¸íĻĶ": 115762,
    "ÏĥÎ¿ÏħÎ½": 116078,
    "Ġother": 1023,
    "_between": 49402,
    "Ġháº¿t": 105530,
    "Ġprotagonists": 95735,
    "Ä±rken": 115639,
    "ĠÙĦÙĥ": 109525,
    ".trace": 35512,
    "Ġreputation": 17444,
    "Ġ)čĊčĊ": 53631,
    "ĠDodge": 43981,
    "Ġtym": 39477,
    "_s": 646,
    "appearance": 97755,
    ".handleError": 66142,
    "esModule": 31112,
    "Ġê³łê°ľë¥¼": 122782,
    "ĠCorinth": 60893,
    "Ġvá»£": 118478,
    ".cp": 67360,
    "ications": 124085,
    "Ġà¤ĳà¤«": 111084,
    "adÄ±k": 114102,
    "çĴ°å¢ĥ": 117501,
    ".Constraint": 89083,
    "precedented": 29791,
    "uncios": 63256,
    "Ġverilen": 111407,
    "åħ¨åĽ½": 111717,
    "íĶĪ": 120277,
    "Ġdz": 26802,
    "Ġrose": 16392,
    ".just": 63310,
    "Centre": 92050,
    "Ġmoderator": 60527,
    "translation": 3129,
    "Ġom": 8019,
    "itlement": 46437,
    "ĠElves": 98704,
    "ĠHad": 24805,
    "Ġancestral": 78771,
    "Ġoutweigh": 63074,
    "ĠNero": 85178,
    "orghini": 96419,
    "ãĥªãĥ¼": 102540,
    "flux": 37806,
    "ĠØ§ÛĮØ§ÙĦØ§Øª": 113502,
    "ĠServing": 72743,
    "Ġook": 28579,
    "ĠÐ¿ÑĸÐ´Ð¿ÑĢÐ¸ÑĶÐ¼": 106517,
    "azi": 18291,
    "_sup": 24655,
    "_Destroy": 80366,
    "Ġoverrun": 85378,
    "_crit": 93189,
    "Ġ/": 611,
    "Ð°Ð½ÑĤÐ°": 106703,
    "Ġsnd": 29712,
    "à¸ģà¸£à¸°à¸Ĺ": 120206,
    "Æ¡n": 68757,
    "_PATCH": 77904,
    "RestController": 41152,
    "Ġreplication": 48891,
    "asured": 40412,
    "ĠpreÃ§o": 98330,
    ".Persistence": 68264,
    "uciones": 67347,
    "Ġlargest": 7928,
    "Ġthro": 60187,
    ".LayoutInflater": 27342,
    "_shell": 50045,
    "ĠØªØ§Ø¨": 110650,
    "_DT": 61355,
    "ylko": 50676,
    "Ġ*čĊ": 7768,
    "me": 2727,
    "Ġrecall": 19635,
    "_ui": 23220,
    "âĢĭĊĊ": 34721,
    "Ġcáº£i": 109358,
    "Ġëıħ": 107712,
    "JUnit": 57348,
    "éĨ´éĨ´": 120318,
    "esium": 41930,
    "ploy": 2760,
    "ÙĪØ§Ø¬": 112967,
    "å¦Ī": 111582,
    "Ġinferior": 38279,
    "_SPR": 80200,
    "íĻĢ": 124800,
    "ĠMarr": 69698,
    "ĠëĲł": 112098,
    "evenodd": 84727,
    "à¸²à¸ģà¸²à¸£": 105175,
    "_phi": 43109,
    "_xt": 61169,
    "Ġspoj": 106659,
    "_READ": 13418,
    "Ġpudding": 82527,
    "ĠBiological": 63711,
    "Ġbrochure": 79903,
    "anded": 6601,
    "oma": 7942,
    "à¹Īà¸Ńà¸¡": 110876,
    "ÙħÙĬÙħ": 124092,
    "Ġeksik": 116419,
    "Ahead": 89062,
    "aturdays": 70804,
    "ĠRedirectToAction": 29277,
    "Ġaccessibility": 40800,
    "Ġshovel": 93091,
    "ĠcÃŃsa": 126928,
    "Ġvoice": 7899,
    ".hide": 18743,
    "eer": 35856,
    "Variables": 23510,
    "Ġå¹": 75677,
    ".unit": 27245,
    "Msp": 84916,
    "ĠEINVAL": 77369,
    "Ġapprovals": 83923,
    "ta": 2629,
    "ÏĥÎ¼Î¿Ïį": 117975,
    "parser": 9854,
    "lated": 22851,
    "Ġtomar": 64811,
    "ĠRefer": 29734,
    "\"Just": 97232,
    "/AIDS": 93646,
    "473": 21505,
    "_Inter": 80817,
    "_NUMBER": 19925,
    "_UID": 70982,
    "ied": 1142,
    "ĠInvoke": 40767,
    "Ġcout": 5142,
    "Ġdipl": 17347,
    "icontains": 100129,
    "llvm": 30142,
    "ï¼ķ": 44597,
    "ialog": 2399,
    "ĠCandidates": 65538,
    ".ce": 90443,
    "Ġcabe": 58879,
    "ĠthÄĥm": 121553,
    "ĠuseParams": 85289,
    "?#": 111838,
    "à¸ªà¸ł": 123982,
    "ibase": 99846,
    "Ġ>=": 2669,
    "ĠCString": 58056,
    "OLUTE": 90648,
    "_caption": 62805,
    "_Height": 84929,
    "ĠBedroom": 33955,
    "Ġire": 44850,
    "ÑĶÑĹ": 105366,
    "Ġchambers": 53279,
    "ĠÑĢÐµÐ´Ð°Ðº": 117105,
    "ĉcli": 87548,
    "Ġfeats": 64401,
    ".edu": 12871,
    "uniacid": 89658,
    "Ġears": 25212,
    "Ġkicked": 28219,
    "Ġlr": 28159,
    "starts": 66976,
    "à¥ĭà¤¶": 106506,
    "ĉcontentPane": 78974,
    "Ġoutr": 18333,
    "\")),Ċ": 31254,
    "ydro": 68107,
    "//--------------------------------------------------------------------------------": 51661,
    "ĉseq": 79661,
    "market": 19859,
    "Ġgcc": 52017,
    ".DataVisualization": 90072,
    "Between": 26556,
    "799": 23987,
    "Ġlabor": 9511,
    "(animation": 75228,
    "ÑĩÐ°ÑĤ": 110258,
    "Ġcomprehend": 58389,
    "æĶ¯ä»ĺ": 69362,
    "$key": 69511,
    "_DECREF": 39987,
    "<|reserved_special_token_120|>": 128128,
    "Ġtends": 28335,
    "ĠDex": 73742,
    "Ġcantidad": 38376,
    "aked": 7897,
    ".history": 24323,
    "å¦Ĥæŀľ": 63344,
    "SceneManager": 71432,
    "ollow": 1573,
    "ãĥ»ãĥ»ãĥ»ĊĊ": 86421,
    "JECTION": 64856,
    "official": 33912,
    "(gameObject": 52112,
    ":not": 68944,
    "oldur": 119245,
    ".createParallelGroup": 18946,
    "Ġdigestive": 60071,
    ".os": 9475,
    "ìĪĺê°Ģ": 123503,
    "ietet": 58008,
    "ĠÑģÐ²ÑĸÑĤÑĥ": 115747,
    "Î¸ÎµÏģ": 117847,
    "ĠMorph": 75740,
    "_LAYOUT": 53785,
    "ĠShips": 74632,
    "Ġairy": 98063,
    "return": 693,
    "ĠGENERAL": 53412,
    ".control": 16811,
    "Ġflavored": 88340,
    "ĠBATCH": 99891,
    "ĠthÃ´i": 120367,
    "à¸±à¸ĩà¸Ħ": 107093,
    "ĠBRA": 74863,
    "(cube": 92217,
    "-Ð³": 117980,
    "ĠnÃ³s": 92875,
    "`s": 40929,
    "Ġtriumph": 38586,
    "_previous": 53652,
    "Ïĩ": 90202,
    "_medium": 55967,
    "ĠPlzeÅĪ": 126872,
    "balls": 46618,
    "ĠXPath": 66242,
    ".LinkedList": 55707,
    ".true": 55238,
    "Ġgmail": 59905,
    "Ġpessim": 73623,
    "Ġencoded": 21136,
    "ĠBurns": 51016,
    "ĠDiÄŁer": 115836,
    "ROOM": 51770,
    "inee": 85899,
    "Ġconfigured": 20336,
    "_constructor": 67310,
    "Ġlevitra": 69020,
    "iliation": 29109,
    "ockets": 20174,
    "Ġsmirk": 86124,
    "Ð¸ÑĤÑĮÑģÑı": 101718,
    "ak": 587,
    "éĻ¤äºĨ": 118702,
    "barang": 87568,
    "ĠStudy": 19723,
    "Searching": 69160,
    "_VLAN": 94589,
    "eteor": 60566,
    "ÑĤÐ°Ðº": 105789,
    "ĠDesmond": 97623,
    "(inst": 36787,
    "Ð»Ð°ÑģÑĮ": 103876,
    "äº¤éĢļ": 109060,
    "/jav": 87457,
    "Ġmild": 23900,
    "ĠæŃ£": 108519,
    "ĸī": 52375,
    "ĠxÃ©t": 106736,
    "ï¼ģ\");Ċ": 45516,
    "PointerException": 40718,
    "Ġkendisi": 120578,
    "Ruby": 62816,
    "Ġlips": 23726,
    "Ġtrivial": 36747,
    "ĠìĪĺìĥģ": 121218,
    "_DEPTH": 33744,
    "Jac": 83929,
    "_sw": 33681,
    "ajÃŃ": 101847,
    "directory": 23905,
    "Ġscholarship": 34225,
    "ĠØ¬Ø±": 110384,
    "ĠBolton": 62677,
    "(max": 8913,
    ".keyword": 75011,
    "ĠWebcam": 47673,
    "Ġdecoder": 25569,
    "Ġderives": 75549,
    "ĠÏĥÎ±Î½": 123775,
    "Deadline": 84693,
    "Ġthereafter": 46095,
    "Ġpenchant": 99780,
    "ĠpathMatch": 87118,
    "Ġmand": 11837,
    "_CUSTOM": 37414,
    "urar": 76959,
    "çĩ": 103809,
    "ITTLE": 61209,
    ".rm": 90401,
    ">).": 72624,
    "wo": 1146,
    "Ð¼Ð°ÑĶ": 125336,
    "ĠBuddh": 50618,
    "Ġpic": 10532,
    "itag": 95640,
    "yÃ¼k": 89655,
    "Ġgrading": 66288,
    ".rcParams": 84186,
    "|(": 61116,
    "Ð»Ð°Ð³Ð°": 118406,
    "_UPPER": 92803,
    "Ġhostel": 81911,
    "(entities": 91408,
    "krv": 108811,
    "locking": 90582,
    "ÏħÎ¼": 124904,
    "ĠØ¯ÙĪØ±Ùĩ": 107074,
    "isin": 58504,
    "bullet": 40560,
    "--;čĊ": 42953,
    "ĠGuests": 62682,
    "ĠPlans": 35695,
    "Ġpork": 36167,
    "ãģ®ãģĭ": 104865,
    "ÙĬÙĤ": 112033,
    "cntl": 76117,
    "ĠÐ¿Ð¾ÑıÐ²Ð¸": 116652,
    "usb": 25337,
    ".force": 49294,
    "áº«u": 103944,
    "Ġwash": 11623,
    "Ġadvance": 12178,
    "minutes": 38137,
    ".admin": 18703,
    "ï¼ıï¼ı": 102747,
    "Ġpoverty": 19542,
    "Ġtechnical": 11156,
    "Unmount": 60639,
    "SAFE": 84888,
    "raki": 116543,
    "_probe": 50208,
    ".Platform": 52327,
    "kuk": 123736,
    "rought": 6478,
    "Cells": 21526,
    "ĠUserInfo": 48857,
    "qu": 447,
    "Clinical": 96830,
    "Ġending": 13696,
    "'label": 34675,
    "Ġcrop": 19641,
    "Ġoto": 122027,
    "Ġdeveloped": 8040,
    "Ġbrasile": 69073,
    "UDP": 42748,
    "à¹Īà¸²à¸Īà¸°": 112849,
    "ĠArabs": 58709,
    "Ġfo": 12018,
    "Couldn": 40087,
    "_UD": 99365,
    "keletal": 86255,
    "ijn": 14485,
    "(ff": 81256,
    "Ð¸ÐºÑĥ": 122322,
    "ĠHampshire": 31997,
    "íķľ": 24486,
    "Ġticking": 83437,
    "rette": 68028,
    "Ġà¸Ńà¸Ńà¸Ļà¹Ħà¸¥à¸Ļ": 122866,
    "à¹Ĥà¸Ń": 124558,
    "Ã©o": 89577,
    "Ġflavorful": 94631,
    "\":-": 53152,
    "_CONST": 23970,
    "ĠAcid": 50234,
    "ĠCharlottesville": 64738,
    "IVERY": 65924,
    "ĠbáºŃc": 121070,
    "ĠDet": 16828,
    "_SCALE": 40910,
    "aigned": 71069,
    "_queues": 83513,
    "ynet": 99088,
    "Ġmp": 10710,
    "rega": 39976,
    "ĠBlizzard": 53133,
    "Ġìĥ": 100514,
    "ffects": 41027,
    "ĠKÄ±z": 120420,
    "-ST": 93677,
    "Imp": 26282,
    "adratic": 89778,
    "Ġsexist": 64882,
    "Ġstray": 62490,
    "Out": 2729,
    "aton": 24444,
    "committed": 98546,
    "ph": 764,
    "ç§ĳ": 70626,
    "Ġbodies": 13162,
    "ContentAlignment": 77056,
    "ĠIbn": 73386,
    "_apps": 70999,
    "mÃ¼ÅŁtÃ¼r": 122315,
    "Ġunas": 77926,
    "Ġunite": 52696,
    "Ġunlike": 20426,
    "(branch": 78962,
    "ĠDortmund": 72550,
    "Ġå¼µ": 125339,
    ">{Ċ": 42546,
    "à¤Ĥà¤ªà¤¨": 108500,
    "ä¸ŃåĽ½": 59795,
    "KHR": 82505,
    "HttpResponse": 44442,
    "[:,:": 98053,
    "Ġstudying": 21630,
    ".member": 33446,
    "ĠartÄ±ÅŁ": 118960,
    "Ġká»ĥ": 107976,
    ".Verify": 55953,
    "Ġassign": 9993,
    ".states": 53247,
    "likelihood": 62230,
    "ĠDetails": 12589,
    "Ġbreathed": 92266,
    "!:": 36675,
    "_strerror": 82544,
    "ĠMayweather": 98434,
    "NI": 15259,
    "ĠDirectX": 67864,
    "Ġforg": 11809,
    "precision": 28281,
    "Ð·Ð½": 106771,
    "Ġglazed": 93286,
    "_detected": 99976,
    "ĠZÃ¡p": 122834,
    "aryl": 78908,
    "Ġwholly": 42241,
    "Ġenlarge": 53744,
    "\"=>": 11395,
    "Goal": 41092,
    "ĉMe": 42238,
    "ĠExpedition": 84874,
    "280": 11209,
    "Spot": 48149,
    "ĠÑģÐ¿ÑĢÐ°Ð²Ð°": 120831,
    "/vendor": 36763,
    "Ø³ØªÛĮ": 111039,
    "Earth": 44924,
    "),ĊĊ": 18966,
    "ĠØ¹ÙħÙĦÙĬØ©": 126280,
    "cool": 43296,
    "ĠBool": 12894,
    "Ġmarking": 36024,
    "(buff": 40829,
    "ĠĠĠĠĠĠĠĠĠĠĠĠĠĠĠĠĠĠĠĠĠĠĠĠĠĠĠĠ": 6663,
    ".Arrays": 29537,
    "_cast": 5416,
    "ĠØ·Ø¨ÙĤÙĩ": 124139,
    "_pas": 80678,
    "ç¿Ĵ": 108710,
    "_SUPPLY": 90516,
    "_eps": 76096,
    "},ĊĊ": 16143,
    "luv": 106399,
    "$sql": 14745,
    "_connections": 57502,
    "iminary": 78973,
    "ĠNG": 20619,
    "Ġsandwich": 28974,
    "GU": 55795,
    "er": 261,
    "iqueta": 98210,
    "_request": 8052,
    "Ġdepress": 39300,
    "Ġlevy": 77162,
    "_GAME": 42008,
    "ivnÃŃ": 103923,
    "uevo": 33421,
    ".pixel": 63435,
    "oky": 70981,
    ":string": 23231,
    "ĠkarÅŁÄ±laÅŁ": 114830,
    "Ġamor": 45265,
    "Ġcontinued": 8738,
    "ĠNYT": 99812,
    "_LOOKUP": 94498,
    "å¤§å®¶": 109429,
    "Ġdominant": 25462,
    "ëĭī": 126456,
    "ĠÑĦÑĢÐ°Ð½": 114685,
    "Ġgáº¯n": 116720,
    "ĠTesla": 28298,
    "Ã¡nd": 48680,
    "Ġcrown": 27631,
    "poll": 31241,
    "ĠÎµÏĢÎ¹": 103654,
    "Ġ_____": 66992,
    "ĠPháº§n": 121498,
    ".head": 16427,
    "ÙĦØ§Ø©": 127778,
    "ĠProduction": 25003,
    "STD": 29586,
    "ãĥªãĥ¼ãĤº": 112618,
    "/ml": 60648,
    "YT": 79445,
    "ÙĢÙĢÙĢÙĢ": 104609,
    "ĠStra": 27745,
    "consulta": 43268,
    "Ġsluts": 58695,
    "icense": 1574,
    "-sup": 59615,
    "Ġdecentral": 39205,
    "material": 8407,
    "æµª": 114115,
    "ĠØ§ØŃØ³Ø§Ø³": 118617,
    "ĠStoke": 84697,
    "ĠdigitalWrite": 65897,
    "ĠÑĤÑı": 122968,
    "\\P": 33805,
    "(flow": 75737,
    ".recyclerview": 36829,
    "Ġhistograms": 86745,
    "Ġbuflen": 89464,
    "Î»Î¿Î³": 102706,
    "ĠvÃ¡l": 87080,
    "Ġjedem": 95985,
    "ĠGlobe": 41910,
    "Ġanew": 93392,
    "Ġconvictions": 48015,
    "(lang": 50593,
    "rase": 10857,
    "WIN": 24185,
    "appendChild": 43709,
    "/authentication": 91677,
    "ĠPeg": 50766,
    "damage": 43965,
    "_enc": 14100,
    "ctors": 12816,
    "Ġcv": 5661,
    ".Popen": 66640,
    "Ġillust": 97583,
    "=User": 95355,
    "Ġstationed": 63620,
    "Ġgolf": 19665,
    "_unref": 50584,
    "ĠAppBar": 42401,
    "ĠpÅĻi": 101138,
    "Ġstarring": 40500,
    ".jsoup": 90498,
    "ãĤĴãģ¤": 116825,
    "Hit": 20065,
    "Ġmonsters": 26872,
    "Ġanthology": 84108,
    "ĠDonna": 47863,
    "ĠWolverine": 84279,
    "ĠBritish": 8013,
    ".mvp": 65417,
    "Standard": 20367,
    "StatusLabel": 61217,
    "ĠIdentification": 59776,
    "ĠDeserialize": 49540,
    "blas": 50397,
    "Driven": 99584,
    "ĠStand": 15948,
    "ĠmaÃ±ana": 96616,
    "_patches": 99619,
    "Ġgrd": 88660,
    "Ġwerd": 73697,
    "zk": 41796,
    "instructions": 63395,
    "Î¸Î¿": 113862,
    "Ġcidade": 56184,
    ".ReadString": 97838,
    "Ġinstaller": 44152,
    "probability": 88540,
    "Ġmisunderstand": 90700,
    "getAll": 46171,
    "atile": 9187,
    "urrets": 88434,
    "Ð°Ð»ÑĮÐ½ÑĭÐ¼": 114259,
    "Ġulong": 43091,
    "Ġcontribute": 17210,
    "Ġfantast": 64979,
    "Ġtest": 1296,
    "ĠUsers": 14969,
    "ĠPy": 5468,
    ".Buffered": 79832,
    "ĠSidd": 85813,
    "@Transactional": 54010,
    "cantidad": 50431,
    "ĠPEOPLE": 67825,
    "440": 14868,
    "621": 22488,
    "interfaces": 30065,
    "_eng": 63202,
    "Ġ^{Ċ": 48523,
    "Ġrelaxation": 43685,
    "Ġut": 8791,
    "(files": 33644,
    "ermal": 18558,
    "(Control": 80968,
    "Power": 15335,
    "Ġ(\"%": 51634,
    "Ġtraditionally": 36342,
    "Ð¡Ðŀ": 123254,
    "clare": 68654,
    "ĠÙĦÙĦØ£": 113361,
    "Ġrealistically": 89716,
    "Ġ});čĊčĊ": 29475,
    "ĠRicardo": 67050,
    "Ġdepicts": 62991,
    "ç¶Ļ": 120321,
    "ĠForest": 20585,
    "Ġç": 10447,
    "today": 31213,
    "Ġsmashed": 57520,
    "ials": 10522,
    "ĠcÃ¡c": 79328,
    "Ġíĺ¸ì¶ľ": 96599,
    "venience": 40647,
    "Ġlost": 5675,
    "ĠÎŃÏĩÎ¿ÏħÎ½": 115905,
    "ìĽĲìĿĦ": 125160,
    "ĠArticle": 13659,
    "Ã©se": 92252,
    "getPlayer": 96072,
    "ĠChili": 82515,
    "é¡¿": 113176,
    "conds": 8005,
    "((__": 98316,
    "Ġrobotic": 59101,
    "atcher": 29158,
    "paren": 42164,
    "Ġsustainability": 41329,
    ".Here": 91173,
    "Ġbaking": 28915,
    "139": 10125,
    "iked": 43708,
    "gabe": 62329,
    "ĠFamous": 67888,
    "ĠBlockchain": 43985,
    "ĠOmega": 44409,
    "icao": 38082,
    "urope": 4176,
    ".styleable": 73507,
    "ubbles": 35395,
    "ï½Ģ": 100786,
    "ÎĪ": 116101,
    "Ġclassrooms": 58216,
    ".Glide": 86223,
    "âľ": 38798,
    "udded": 86892,
    "/*@": 83694,
    "ktion": 40570,
    "<Audio": 66506,
    "ĉĠĠĠĠĠ": 9281,
    "ĉTokenNameIdentifier": 79883,
    "_mat": 17021,
    "ãĢĢr": 116563,
    "ĠKT": 78561,
    "Ġstarred": 59335,
    "ĠSegment": 38203,
    "Ġíķµ": 125959,
    "_ctxt": 94385,
    "$n": 72611,
    "ĠTrend": 31753,
    "ĠØ´ÙĬØ¡": 122110,
    "Ġparis": 41958,
    "__/": 48472,
    "ictory": 91133,
    "Ġgre": 2886,
    "(false": 3660,
    "olley": 35619,
    "Ġjsou": 101062,
    "Ġtuy": 117111,
    "Ġpowers": 13736,
    "Î¼ÏĨ": 106887,
    "Ä±mÄ±": 102739,
    "eliac": 95705,
    "ĠIntro": 53086,
    ".'<": 72212,
    "Ġnou": 20117,
    "asses": 52090,
    "View": 860,
    "ĠAdministration": 17128,
    "ĠsetResult": 84006,
    "-it": 38611,
    "Ġèĩ³": 118838,
    "ĠsetState": 22167,
    "ĠJoint": 30833,
    "à¤®à¤¹": 124794,
    "Ġ'`": 57095,
    ".RowStyles": 64366,
    "anas": 26997,
    "à¸Ńà¸²à¸¢": 123208,
    "Ġinformative": 39319,
    "Ġler": 76120,
    "ibility": 3225,
    "igua": 91846,
    "yat": 99715,
    "_SEPARATOR": 33343,
    "_reviews": 69806,
    "eon": 66130,
    "estion": 43598,
    "adalafil": 94186,
    "Ġdevant": 77558,
    "ĠCler": 41876,
    "$count": 51600,
    ".wait": 16693,
    "tÄĽz": 112054,
    "á»ĳ": 28707,
    "Ġtraveling": 21646,
    "uin": 75721,
    "NF": 39167,
    "Split": 20805,
    "_que": 48442,
    "Ð¸Ð»Ð¸ÑģÑĮ": 114216,
    "ĠNicolas": 52836,
    "ĠHT": 5373,
    "ĠÅŁaÅŁ": 118383,
    "ĠCe": 24703,
    "ĠKitty": 67281,
    "ĠCActive": 78804,
    "ĠEarly": 23591,
    ".\"),Ċ": 63597,
    "Ġå¤ĸ": 106547,
    "Throws": 45837,
    "atility": 32256,
    "Ð°Ð½Ð¸Ð¹": 105560,
    "Ġintersects": 89284,
    "ĠÙĥÙĨØª": 119574,
    "ixed": 3366,
    "Ġrests": 54331,
    "ensation": 42725,
    "_launch": 52717,
    "dept": 41685,
    "é¡į": 109518,
    "\\Ċ": 5779,
    "(recv": 90594,
    "(property": 27735,
    "ĠDisclaimer": 67929,
    "ĠJunior": 31870,
    "ĠYam": 34654,
    "ĠEntrance": 84220,
    "Ġcommanders": 61427,
    "Ġdijital": 127714,
    "uggestion": 43216,
    "âĢŀP": 119161,
    "Ġprotein": 13128,
    "à¹ģà¸Ľ": 112108,
    "Ġ((__": 55423,
    "_simple": 31115,
    "iphery": 94648,
    "Ġ\"{": 14190,
    "ĠLa": 5034,
    "HW": 39352,
    "Ġlodash": 90564,
    "Ġláº§n": 103528,
    "Ġremember": 6227,
    "RODUCTION": 91199,
    "ĠCáº§n": 126086,
    "Ã®t": 77422,
    "Ġppt": 78584,
    "_TODO": 88561,
    "ĠCisco": 43234,
    "ĠØ§ÙĦÙĤØ±Ø¢ÙĨ": 126572,
    "Ġbelki": 117265,
    "Ġii": 14799,
    "Ġ\"\",Ċ": 8488,
    "ĠTCHAR": 68169,
    "ĠHunter": 24008,
    "ĠStereo": 73075,
    "(xhr": 59390,
    "ĠSonic": 44317,
    "ĠGore": 49625,
    "ĠãĢī": 115557,
    "ĠPayne": 69595,
    "à¸²à¸ŀ": 101345,
    "Ä¢": 125366,
    "Ġ$#": 67015,
    "Ġ:ĊĊ": 14852,
    "daq": 74307,
    "ÐŀÐĴ": 106062,
    "ÑĪÐ¸Ð½": 125192,
    "Ġcongrat": 40588,
    "âĨĴâĨĴ": 120829,
    "Ġforehead": 52354,
    "âĢľFor": 75550,
    "Ġanz": 78968,
    "ĠØªÙĪØµ": 117140,
    "(true": 3800,
    "ĉwidget": 97225,
    "ĠÐºÑĸÐ½": 110017,
    "Ġcoordinator": 31384,
    "ision": 1854,
    "éĽĨåĽ¢": 113911,
    "(Chat": 66138,
    "ĠHon": 16958,
    "âĢ¦Ċ": 90578,
    "ĠWorth": 37246,
    "ÏģÎ¹Î±": 104635,
    "attro": 78047,
    "Ġ...\\": 99860,
    "ĠØ¨Ø±Ø§ÛĮ": 100730,
    "Ġimportance": 12939,
    "_HOST": 17656,
    "Ġnotifications": 22736,
    "ĠWohn": 53895,
    "PURE": 46461,
    "WithError": 67202,
    "Ġstay": 4822,
    "SITE": 62206,
    "æİ¨èĸ¦": 120972,
    "Ġshares": 13551,
    "ĠØ¨Ø±Ø§Ø¨Ø±": 111920,
    "Ġfleet": 26155,
    "Ġjournalistic": 94800,
    "ĠÐ¾ÐºÑĢÑĥÐ³": 113326,
    "aÃ±a": 42361,
    "ĠĠĠĠĠĠĠĠĠĠĠĠĠĠĠĠĠĠĠĠĠĠĠĠĠĠĠĠĠĠĠĠĠĠĠĠĠĠĠĠĠĠĠĠĠĠĠĠĠĠĠĠĠĠĠĠĠĠĠĠĠĠĠĠ": 5351,
    "','',": 75504,
    "_commands": 45251,
    "ĠÑĨÐµÐ¹": 109393,
    "vely": 16637,
    "ĉendif": 65955,
    "Ġmotion": 11633,
    "ameleon": 97911,
    "Ġeauto": 51373,
    "ManagedObjectContext": 69601,
    "ç¡®": 35056,
    "Ġaudiences": 30994,
    "eree": 76060,
    "Ġå": 4996,
    "plementation": 10075,
    "Ġidentities": 40521,
    "Ġopts": 12462,
    "Ġbathtub": 81188,
    "Ġitself": 5196,
    "_callback": 12802,
    "_nodes": 15242,
    "Ø§Ø®ØªÙĩ": 107598,
    "ĠÐĺÑģÑĤÐ¾ÑĢÐ¸Ñı": 121276,
    ".nextLine": 33175,
    "ĠAmar": 74757,
    "ĠCss": 80314,
    "ĠXCT": 16308,
    ":\")": 91320,
    "ÑĢÐ°Ð·Ñĥ": 106108,
    "à¸µ": 29419,
    "Ġwij": 50651,
    "ÏģÏĮÏĤ": 119606,
    "Unknown": 14109,
    "Ġì¡¸": 116854,
    "ĉfunc": 30344,
    "Ġmong": 75642,
    "ÑĥÑģÑĤÐ°": 112567,
    "REFERRED": 13039,
    ".findById": 22382,
    "ï¼Įå¥¹": 105902,
    ">To": 94476,
    "Ä±nÄ±f": 105884,
    "identally": 57222,
    "multi": 27364,
    "ÑĢÑĥÑĩ": 109477,
    "Ġmort": 10237,
    "Ø³Ø§Ø¨": 121457,
    "Ġdroit": 64079,
    "Ġkontrol": 97134,
    "Ġ$('": 16092,
    "Ø§ÙĪØ±Ù¾ÙĪÛĮÙĨØª": 112903,
    "ĠspyOn": 67634,
    "Ġcms": 27366,
    "Ú©Ø§Ø±": 103980,
    ".{": 18935,
    "ĠNacional": 45689,
    "Ġdiscret": 28558,
    "xed": 52419,
    "cona": 91524,
    ".Microsoft": 76825,
    "Ġgeile": 25135,
    ".xrTableCell": 48134,
    "\\Web": 93589,
    "ars": 1590,
    "à¥įà¤Ł": 100431,
    "Ġconstructive": 54584,
    ".GONE": 25315,
    "ĠÐ¼Ð¾Ð½Ð°": 117556,
    "ĠSammy": 91129,
    "=t": 24957,
    "Ġsono": 21488,
    "Ġshader": 21689,
    "elsey": 93567,
    "Ð¾Ð±Ñī": 55257,
    "Ġofficer": 9640,
    "Ġ:": 551,
    "ĠRev": 10315,
    "ÑĨÑĸÐ¹Ð½Ñĸ": 119981,
    "Ġdemonstrates": 32216,
    "ÐµÑī": 86610,
    ",double": 37367,
    "_alpha": 27731,
    "ORIGINAL": 99301,
    "Ġsurrogate": 73950,
    "Ġfrequ": 6297,
    "Ġked": 80142,
    ".Show": 9237,
    "Coupon": 89152,
    "ĠÎµ": 60247,
    ".linalg": 38832,
    "24": 1187,
    "ĠìĿ´ìļ©": 106359,
    "ĠMichigan": 14972,
    "remain": 48684,
    "sports": 84660,
    "ĠBN": 46416,
    "Ġslam": 45992,
    "')ĊĊ": 4713,
    "ĠSuzanne": 85252,
    "Ġtorso": 64300,
    "little": 56492,
    "_try": 54383,
    "rios": 28951,
    "hes": 17082,
    "ĠsÄħ": 38227,
    "_estimate": 79818,
    "inc": 2910,
    "ãģ¾ãĤĬ": 109709,
    ".s": 516,
    "ettes": 47003,
    "_hdl": 67254,
    "âĢĿ:": 57633,
    "\"?ĊĊ": 94770,
    "\\xd": 53612,
    "udy": 18339,
    "Ġgerne": 55164,
    "âĢĮÙ¾Ø¯ÛĮØ§ÛĮ": 115509,
    "Ã³n": 3244,
    "ĠgetMessage": 58853,
    "ÏĥÎ¯": 115092,
    "acerb": 51919,
    "ĠíĥĲ": 127433,
    "éļ¨": 120509,
    "873": 25747,
    "Tá»«": 125330,
    "ĠSAVE": 51722,
    "-long": 24725,
    "-syntax": 83879,
    "degree": 42127,
    "Ġfrat": 82072,
    "ungalow": 85019,
    "âĳł": 118075,
    "Ġnecesita": 95066,
    "å¥½äºĨ": 119577,
    "Wy": 68007,
    "Ġhairs": 66060,
    "Ġqi": 75205,
    "Ġirritating": 85077,
    "Ich": 41469,
    "ROLS": 97983,
    "CODE": 15211,
    "ĠMPG": 91498,
    "osed": 20158,
    "_leave": 63766,
    "event": 3163,
    "ãĤ·ãĥ£": 105988,
    "å·¥": 49792,
    "Ġacknow": 12125,
    "Ġgab": 56979,
    "Ġëĭ¤ìļ´ë¡ľëĵľ": 117567,
    "Senate": 87104,
    "ÏĨÏĮ": 117710,
    "PLAIN": 91989,
    "jeme": 124786,
    "ĠsetText": 45662,
    "uÃ§Ã£o": 62067,
    ".writeHead": 77985,
    "Ø£Ùħ": 118358,
    "åıĳéĢģ": 73117,
    "ĠCarousel": 67302,
    "à¸§à¸£à¸£": 113756,
    "LayoutConstraint": 46040,
    "ĠEvet": 125533,
    "genome": 89045,
    "Ġaplic": 30540,
    "ĠEsther": 84738,
    "ĠÃ¶z": 101213,
    "Ġchemical": 11742,
    "ï¼ī:": 124446,
    "<j": 76738,
    "íķĳ": 113629,
    "ĠÑģÐ¾Ð¾Ð±Ñī": 67121,
    "=âĢĿ": 45221,
    "Ġcomfortably": 45769,
    "-sh": 7666,
    "Å¡ti": 123277,
    "Ġrelent": 43946,
    "ãĥĩãĤ£": 103857,
    "ĠFunds": 61288,
    ".checkBox": 34982,
    "Ġsuspicious": 32427,
    ".getWritableDatabase": 97191,
    "ateur": 11067,
    "ĠBurger": 52871,
    "Ġsnel": 90811,
    "Ġsyndrome": 28439,
    "ĠÑĦÐ°Ð¹": 36356,
    "parsers": 89664,
    "Ġpowder": 17138,
    "ht": 427,
    "åºĬ": 107918,
    "patient": 23557,
    "Ġshutting": 51126,
    "Ġinstalled": 10487,
    "userinfo": 62610,
    "wart": 36708,
    "ĠTravis": 41810,
    "Ġbudete": 120186,
    "Ġward": 26741,
    "Ġsesso": 18750,
    "ĠBACKGROUND": 97714,
    "Ġreorder": 84284,
    "Ġvos": 26317,
    ")^": 30876,
    "ĠModern": 18766,
    "ĠMENU": 36797,
    "ĠRelated": 25368,
    "atham": 69476,
    "Ġshake": 27116,
    "Path": 1858,
    "ĠCharts": 67376,
    "indy": 50090,
    "ĠnÃ¡mÄĽstÃŃ": 121767,
    "à¸´à¸ĩ": 101342,
    "Ġdelve": 82845,
    "à¸²à¸£à¸¢": 115329,
    "SMS": 66665,
    "ìĬ¹": 104303,
    "_jButton": 62850,
    ".isArray": 32909,
    "_DATABASE": 46610,
    "ĠKEEP": 96909,
    "Ġarts": 19071,
    "Âł": 4194,
    "Ġbacterial": 45964,
    "Ġbuckle": 81095,
    "ĠíĨł": 104689,
    "ÙİÙĳ": 107344,
    "ĠBBC": 18588,
    "\"a": 57793,
    "ĠRep": 3402,
    "Ġmessaging": 30622,
    "ĠÙģÙĪÙĤ": 109854,
    "ĠPhelps": 98615,
    "_SWITCH": 52283,
    "(nt": 70861,
    "ĠTk": 50260,
    "ĠmÃ¹i": 119948,
    "ĠpÅĻiz": 118610,
    "ĠDental": 48804,
    "Ġbrutal": 28860,
    ")=>": 28265,
    "Ġgel": 18316,
    "Ġflere": 86691,
    "ãģĿ": 27929,
    "ĠHACK": 96223,
    "Ġdramas": 88826,
    ".filter": 7081,
    "Nothing": 24714,
    "Å¾enÃ½": 127487,
    "serialized": 76377,
    "Ġunanimously": 65178,
    "Importer": 78389,
    "ç¸½": 109068,
    ".Extensions": 21167,
    ".scalablytyped": 82000,
    "ĉstrcpy": 31043,
    "ĠOriginally": 25842,
    "cad": 35555,
    "ĠEuropeans": 51607,
    "Ġbullied": 78913,
    "Ðº": 4898,
    "ĠsetStatus": 57404,
    "(rate": 77823,
    "luvÃŃ": 126664,
    "IZATION": 50125,
    "ÙĦÙĪ": 102787,
    "_configuration": 36826,
    "ĠBour": 39475,
    "ĉvalues": 47039,
    "Ġsurpr": 6350,
    "ĠCuisine": 81961,
    "-md": 4533,
    "ĠEnc": 10984,
    "Fourth": 89703,
    "ĠÐĳÐ°ÑĢ": 120092,
    ".dis": 7929,
    "Vals": 53552,
    "Ġleur": 28130,
    "ĠMeat": 45965,
    ".progressBar": 73193,
    "ĠDanish": 44780,
    "Ġrepresents": 11105,
    "Ġbenchmark": 29531,
    "ĠPlayboy": 91079,
    "ãĥĳ": 80805,
    "Ġfragrance": 56227,
    "Ġinvit": 83167,
    "ĠTitles": 85487,
    "ĠTechnique": 78719,
    "Ä±lÄ±r": 103539,
    "ibraltar": 85896,
    "Ġfertil": 36214,
    "Operand": 31040,
    "ĠÐļÐ¾Ð³Ð´Ð°": 115336,
    "(duration": 49248,
    "Ġbá»¥i": 126410,
    "Ġobj": 2909,
    "ragment": 6145,
    "721": 20873,
    "Berlin": 95509,
    "ĠHell": 24830,
    "ĠaddAction": 87110,
    "ĠForms": 24485,
    "Ð§ÑĤÐ¾Ð±Ñĭ": 122151,
    "ĠnÃ¡st": 116842,
    "ĠÑģÐ¿ÑĢÐ°Ð²Ð¸": 120194,
    "Documentation": 65434,
    "ĠÐ½ÑĸÐ¶": 108192,
    "ĠBradford": 60929,
    "å¼ıä¼ļç¤¾": 115801,
    "ĠaÃ§Ä±k": 102295,
    "Ġall": 682,
    "ĠÐ±Ð»Ð°": 105749,
    ">Delete": 97304,
    "ĉlua": 45922,
    "çľŁæŃ£": 124636,
    "_Column": 97722,
    ".predicate": 95691,
    "Ġvb": 35819,
    "(Arg": 89202,
    "placements": 64635,
    "Ġdispatched": 50251,
    "Ġfrancaise": 67568,
    "Ġdye": 54631,
    "à¤²à¤Ĺ": 123630,
    "(ROOT": 74457,
    "ĠHalloween": 27711,
    "Ġsá»©c": 104995,
    ".Sm": 93545,
    "Ġitaliani": 80549,
    "(){}ĊĊ": 90511,
    "Ġconglomer": 88751,
    "_FLAG": 12154,
    "ĉĠĠĊ": 39420,
    "Ġfoyer": 100016,
    "ä¿ĿåŃĺ": 47585,
    "Ġreimbursement": 71111,
    "ĠâĢĵĊ": 115972,
    "ĠçĽ": 75966,
    "Ġzipcode": 81449,
    "SIGN": 55172,
    "ĠLabrador": 80376,
    "Ġcooled": 65410,
    "Ġmommy": 82240,
    "(Application": 42336,
    "_TREE": 47791,
    "Ġespecially": 5423,
    "ÑĥÐ¼": 40211,
    "Î¼Î¿Î¯": 125335,
    "ĠBei": 48536,
    "departureday": 96737,
    "Ġmessages": 6743,
    "Product": 4921,
    "Ġrelax": 12234,
    "skou": 105754,
    "County": 69994,
    "Ġconsid": 77554,
    "éħį": 55487,
    ".lastname": 73737,
    "phyl": 110231,
    "ĠPictures": 29485,
    "ĠSpring": 12531,
    "=y": 30468,
    "Ġglaciers": 95790,
    "pcion": 16669,
    "Ġcoaching": 24826,
    "Ġtuo": 63258,
    "Available": 16892,
    "scient": 56447,
    "liament": 12685,
    "Ġadjud": 70280,
    "Ġè·¯": 123845,
    "/fwlink": 63576,
    "Ġembarked": 79120,
    ";?></": 41112,
    "Owner": 14120,
    "ĠÏĢÏģÎŃÏĢÎµÎ¹": 120611,
    ".consumer": 69866,
    "ĠÏĥÏĦÎ±": 104361,
    "Ġnorske": 61146,
    "ĠÐ¼ÑĥÐ»ÑĮ": 124574,
    "ĠobchodnÃŃ": 122361,
    "ä¸į": 16937,
    "Service": 1898,
    "ÙĦØ§ØŃ": 105889,
    "ĠRah": 33348,
    "Ġ...)": 48014,
    "ĠonFocus": 87074,
    "ĠSá»±": 117272,
    ".REG": 95238,
    "ç§¦": 120006,
    "Ð°Ð»Ð¸": 48355,
    "ĠEisen": 55593,
    "Got": 33562,
    "Ġcholesterol": 39086,
    "DATA": 18253,
    "_EXTERNAL": 48971,
    "Ġcorrosion": 56488,
    "abled": 2364,
    "ĠØ§ÙĦÙħÙĨ": 103500,
    "='%": 42882,
    "APH": 24063,
    "ĠÐ½ÐµÐ¶": 117371,
    "ĠPLUS": 59553,
    "Deposit": 80082,
    "Tor": 33450,
    "meth": 69991,
    "Ġpetit": 46110,
    "Ġtoile": 49775,
    "å¿½": 120994,
    "ĠPessoa": 80676,
    "ĠØ§Ø¨ØªØ¯Ø§": 126129,
    "¨¡": 45501,
    "Ġhm": 50462,
    "-facing": 64406,
    "={()=>": 56151,
    "irler": 117533,
    "Ġå²": 109481,
    "à¸¸à¸¡à¸łà¸²à¸ŀ": 120491,
    "craft": 7868,
    "ĠBAS": 10998,
    "_multi": 26190,
    "Hover": 35479,
    "èªŀ": 102158,
    "Ġspoke": 12570,
    "urv": 97860,
    "_Client": 47202,
    ".enabled": 22929,
    "esini": 102858,
    "ĠWelch": 85263,
    "ÙĤØ§Øª": 109630,
    "444": 14870,
    "ĠBarrel": 65071,
    "ĠGPS": 24229,
    "Ġinitials": 79537,
    "Ġpodstat": 119783,
    "à¤¾à¤¯": 100537,
    "Ġhtt": 55420,
    "CRT": 77929,
    "Ġwsp": 63607,
    "ĠDrupal": 36144,
    "En": 1737,
    "Ġadequately": 49672,
    "-add": 19082,
    "ĠcolumnName": 66846,
    "è¿Ļ": 44388,
    "ĠHull": 58486,
    "_nama": 87636,
    "coordinate": 63626,
    "ĠÑģÐ¸": 107214,
    "ĠKelley": 74813,
    "Ġcallee": 95900,
    "_strength": 72993,
    "Ġdatatype": 47734,
    "ïºĶ": 119050,
    "ĠÐĶÐ¶": 103604,
    "ĠÐ¿Ð»Ð¾ÑīÐ°Ð´": 116835,
    "ĠBaron": 54007,
    "gold": 35637,
    ">manual": 27765,
    "esper": 70138,
    "à¹ĩà¸ģà¸ĭ": 121887,
    "ĠSQLException": 25395,
    "Ġentert": 23737,
    "072": 23439,
    "å¾ģ": 109568,
    "isp": 13391,
    "Ġdeparting": 81573,
    "jspb": 94047,
    "Ä±msÄ±z": 114185,
    "âĢĮÙħ": 122293,
    "ĠoluÅŁ": 102034,
    "Ġthought": 3463,
    "however": 98936,
    "Ġwooden": 23162,
    ">Loading": 98560,
    ".JSONObject": 41655,
    "preferences": 62089,
    "Cal": 9027,
    "arium": 34765,
    "éĿ¢çļĦ": 115070,
    "Ð°Ð²Ð°": 107452,
    "etcode": 84245,
    "ãģĺãĤĥ": 104446,
    ".ObjectMeta": 81322,
    "ĉapp": 29336,
    "ovÃ©": 100601,
    "Ġdirig": 64956,
    "Ġvulnerability": 34104,
    ".charset": 71930,
    "/es": 39528,
    "=\"/\">": 70039,
    "jam": 44811,
    "udd": 8512,
    "ĠurÄįit": 109301,
    "Getter": 32585,
    "Ġchlorine": 85206,
    "ëĭ¤ëĬĶ": 105453,
    "ĠFooter": 27575,
    "Ġrazor": 60230,
    "ĉExpect": 37011,
    "Ġbesides": 28858,
    "ĠBeach": 13011,
    "noise": 53318,
    "ĠSloan": 94193,
    "unch": 3265,
    ".HttpSession": 76513,
    ".UnitTesting": 65831,
    "UDA": 32391,
    "uestra": 76464,
    "Label": 2535,
    "È": 132,
    "à¸²à¸ģà¸¥": 116426,
    "ĠFever": 85001,
    "ĠNSK": 83242,
    "ĠPsychological": 70069,
    "Ġcriteria": 13186,
    "ĠmÃ¥": 31333,
    ".PO": 86073,
    "EP": 9377,
    "ĠÑģÐºÑĢÑĭ": 127353,
    "Ġë¶Ģë¶Ħ": 115155,
    ".Max": 14877,
    "ĠÐ´Ð¾ÐºÑĤÐ¾ÑĢ": 123350,
    "={[Ċ": 69321,
    "-ab": 39130,
    "Ġholiday": 13560,
    "otherwise": 61036,
    "ĠCoh": 84675,
    "ĠãĢĢãĢĢãĢĢãĢĢãĢĢ": 106932,
    "Ġburnt": 50440,
    "exit": 13966,
    "_reg": 5025,
    "_behavior": 75640,
    ",d": 12260,
    "ÐļÐĲ": 111053,
    "Ø³ÙĪÙĨ": 109534,
    "à¸¨": 100450,
    "ĉBOOL": 45106,
    "ĠEmployee": 17275,
    "ama": 3105,
    "ĠQVariant": 41166,
    "Ġquestioned": 29440,
    "ĠÐ½ÑĸÐº": 114701,
    "Ãİ": 72907,
    "Credits": 70439,
    "Ġkostenlos": 27165,
    ";$": 26759,
    "Block": 4818,
    "zs": 42050,
    "/data": 13469,
    ")n": 80198,
    "ÏģÎµÎ¹Î±": 123793,
    "è¨³": 117735,
    "ĠsÃ³ng": 117495,
    ":\",": 12421,
    "Ġarrives": 30782,
    "ĠATA": 92722,
    "_merged": 91802,
    "Ġbald": 48653,
    "ĠJR": 53666,
    "Ð¾Ð³ÐµÐ½": 127615,
    "Ġaider": 91878,
    "Ġtriple": 24657,
    "ĠReasons": 66131,
    "æľ¬å½ĵãģ«": 126920,
    "ĠResistance": 40980,
    "ĠuserList": 65474,
    "ĠLines": 39333,
    "ĠnovÃ©": 110630,
    "::::::::::::::::::::::::::::::::": 107360,
    "ĠNeuro": 32359,
    "_POOL": 53024,
    "éĲµ": 115471,
    "Ġprovincia": 79926,
    "Checks": 50920,
    "ĠTooltip": 60323,
    "Ġgenuine": 22785,
    "Ġ){Ċ": 11200,
    "<Array": 61290,
    "Ġlatitude": 21518,
    "Creature": 48593,
    "éłħçĽ®": 111831,
    "Ġlamp": 29062,
    "ĠustanovenÃŃ": 120536,
    "_\"": 19298,
    "protect": 47079,
    "down": 2996,
    "owned": 18838,
    "_verification": 85345,
    "ullivan": 37141,
    "Young": 41672,
    "Atual": 75469,
    "Numer": 68837,
    "ĉtd": 77473,
    "ÐºÐ¸": 17165,
    "Orientation": 23133,
    "ensitive": 19245,
    ".fastjson": 74717,
    ":Register": 66439,
    "Ġinne": 78325,
    "Ġspeeds": 25753,
    ".import": 35997,
    "Ð»ÑĸÑĤ": 114811,
    "mitted": 5600,
    "ouch": 3102,
    "ĠÐ²Ð¾ÑģÑģÑĤÐ°Ð½Ð¾Ð²": 121136,
    "Ġoak": 38971,
    "(styles": 62872,
    "ä¹¦è®°": 124960,
    "'action": 91655,
    "Ġpounded": 95579,
    "ĠTrong": 105322,
    "ition": 684,
    "ĠÐ¼Ð¾Ð»Ð¾Ð´": 105418,
    "Ġenable": 7431,
    "Ø§ÙĬÙĨ": 113730,
    "ĠÐ¾Ð´Ð½Ð¾Ð¼Ñĥ": 122461,
    "ĠRabbi": 71969,
    "Ġsnowy": 90873,
    "~=": 51733,
    "ĠVÆ°á»Ŀn": 120907,
    "(rule": 36044,
    "å¹ħ": 111044,
    "ĠChecks": 25884,
    "ĠStringTokenizer": 72701,
    "Ġprofiling": 56186,
    "ĠìĽĲ": 102467,
    ".Tests": 38233,
    "_dy": 83735,
    "ĠBarang": 88707,
    "();Ċ": 545,
    "ĠPlay": 7199,
    "_Blue": 98301,
    "ĠposX": 67790,
    "Î²Î¬Î»": 125285,
    "Ġsubtle": 27545,
    ".clear": 7578,
    ".keyCode": 32675,
    "-head": 27488,
    "ĠDiscord": 35164,
    "HideInInspector": 88258,
    "Ġpackages": 14519,
    "ĠTiming": 71913,
    "ĠglGet": 52051,
    "Ġoffset": 4445,
    "ãĤĬãģ«": 112586,
    "ĠØ§Ø·": 102992,
    "Ð¸Ð¼Ð¾ÑģÑĤÐ¸": 116776,
    "Ġdedicated": 12514,
    "à¤µà¤¤": 122920,
    "Ġat": 520,
    "ÅĻÃŃz": 122139,
    "ĠRemaining": 90730,
    "ÐµÐ½Ð¸Ðµ": 17618,
    "ĠÙĨØ¨": 115667,
    "Ġexcl": 81384,
    "_catalog": 48410,
    "Ġfuck": 7976,
    "Ġannunci": 29985,
    "jiÅ¡tÄĽ": 120890,
    "Ġsemester": 34253,
    "åħ¬åĳĬ": 114969,
    "ancias": 80741,
    "_PARSE": 70806,
    "ĠÎ´Î¹Î¬": 108335,
    "//************************************************************************": 66180,
    "Credentials": 28123,
    "MODEL": 61537,
    "Ġoffsetof": 62747,
    "Ġìĸ¸": 105797,
    ".Custom": 28749,
    "Ġå¯Į": 124885,
    "ĠØ§ÙĦØ±Ø³ÙħÙĬ": 121889,
    "affiliate": 79440,
    "@class": 50218,
    "]]);Ċ": 50954,
    "ìĤ¬ë¥¼": 111636,
    "Ethernet": 99106,
    "ĠProvider": 23766,
    "Ġà¤ĺà¤°": 106244,
    "endimento": 80959,
    "-custom": 37998,
    "à¸±à¸ĩà¸ģà¸¥": 122979,
    "Ġattribution": 63124,
    "Ġtransgender": 28307,
    "Ġxhttp": 97297,
    "ĠViv": 42136,
    "}),Ċ": 31893,
    "Ġ#čĊ": 56323,
    "ĠConsolid": 79980,
    "ĠMá»Ļt": 108418,
    "JoinColumn": 41490,
    "ÙĤÙĪÙĦ": 120961,
    "Ġcolourful": 70467,
    "Ġcentralized": 58983,
    "Ã¡zi": 121515,
    "Ġdock": 28649,
    "ĠÐ³Ð¾Ð²Ð¾ÑĢ": 103327,
    "ulp": 13136,
    "pile": 12470,
    "Ho": 49078,
    "htags": 26352,
    "olated": 81619,
    "Ġdish": 12269,
    "Ġrefunds": 73618,
    "tag": 4681,
    "ĠStreaming": 45910,
    "bearer": 96231,
    "Ġcomet": 71086,
    "<span": 10081,
    "ufe": 67175,
    "_projection": 73838,
    "ĠInstallation": 40245,
    "ĠHOME": 41667,
    "Ġloot": 46403,
    "$ret": 54427,
    "rolling": 16608,
    "+l": 77011,
    "grant": 52727,
    "ieurs": 46138,
    "ĠNylon": 91762,
    "(Dialog": 43183,
    ".examples": 71759,
    "ä¸»ä»»": 122474,
    "ĠConverter": 40428,
    "ĠUkr": 14634,
    "Ġpractise": 88688,
    "dr": 3696,
    "odings": 59435,
    "ritable": 23349,
    "Ġclinic": 28913,
    "ÎµÎ¹": 100363,
    "ĠFormat": 15392,
    "onya": 113262,
    "ĠAnsi": 73122,
    "ØºÙĬÙĦ": 119259,
    "_flush": 40313,
    "ĠuseEffect": 14567,
    "ajax": 7390,
    "ÑıÑİÑĤ": 120079,
    "Ġhostname": 29215,
    "ĠBad": 11717,
    "Ġco": 1080,
    "Ġreste": 66167,
    ">/<": 68872,
    "Ø§ÛĮÙĨØ¯": 121812,
    "ĠProductions": 52964,
    "Ġtunnels": 53827,
    "Ġcoincidence": 50278,
    "Ã¡gina": 40290,
    "enzyme": 65728,
    "ĠSuitable": 86346,
    "ĠLesson": 50015,
    "title": 2150,
    "ĠNaz": 29874,
    "Ġhealth": 2890,
    ".FileNotFoundException": 62649,
    "Ġà¸Ĺà¸³à¹ĥà¸«": 121440,
    "Ġreunion": 58384,
    "Ġrefriger": 30477,
    "ĠGlyph": 88513,
    ".PLAIN": 72771,
    "Ġappreciate": 15763,
    "Ġë§ŀ": 107625,
    "looking": 20986,
    "_RELEASE": 41749,
    "chied": 32822,
    "ĠÑģÐ±": 118921,
    "ĠðŁĺ": 27623,
    ".counter": 44176,
    "Ġresearching": 45243,
    ".ScrollBars": 94070,
    "ĠDakota": 28972,
    "ĠFah": 74607,
    "ZE": 53967,
    "Ġfootsteps": 60802,
    "Ġà¤Ńà¤°": 105507,
    "Ġarrangements": 28904,
    "ĠìĨ": 78696,
    "ĠÐ¿ÑĢÐµÐ´Ð»Ð¾Ð¶": 116049,
    "æ°Ķ": 102146,
    "Ġspell": 13141,
    "Islamic": 98273,
    "}\"": 10064,
    "ĠRename": 64808,
    "æłı": 116227,
    "ĠMONEY": 94562,
    "à¥ĩà¤¯à¤°": 109213,
    "ĠnaÅ¡eho": 127101,
    "Ġmills": 33008,
    ">Please": 67404,
    "ĠØ²ÛĮØ³Øª": 119923,
    "æŃ¡": 125741,
    "hy": 8671,
    "ĠdÃ¹": 108116,
    "create": 3261,
    "ĠTMZ": 100055,
    "Link": 4026,
    "Ġpendant": 42844,
    "%%": 2838,
    "LayoutInflater": 40212,
    "Ã¼n": 16461,
    "æĸĩçĮ®": 124055,
    "Ġpost": 1772,
    "èħ¿": 122072,
    "met": 4150,
    "ĠÐļ": 36479,
    "Ġlavoro": 66485,
    "ĠÑĥÐºÐ»Ð°Ð´": 115185,
    "Ġhunt": 19614,
    "ĠCollector": 59648,
    "alignment": 45698,
    "isers": 62380,
    "ÐµÐ²Ð¸": 121954,
    "Ġdestination": 9284,
    "ä¸ĬãģĴ": 109415,
    "ĠcÃ¡ch": 101359,
    ".ecore": 63986,
    "Ġsincerity": 100226,
    "ĠÐ¿ÐµÑĢÐµÐ¼ÐµÐ½": 81199,
    "ĠFame": 39627,
    "DEF": 13963,
    "metric": 16282,
    "Ġoriginate": 82316,
    "Ġpert": 18713,
    "pon": 621,
    "processors": 82848,
    "éĨ´": 117062,
    "baum": 59611,
    "Resource": 4888,
    "}.{": 66984,
    "ĠChart": 21964,
    "íķ©ëĭĪëĭ¤": 61938,
    ".CV": 99319,
    "Ġtheta": 19034,
    "ĠÐ³Ðµ": 111794,
    "Ġcpt": 95567,
    "Ġchance": 6140,
    "ĠZimbabwe": 52320,
    "Ġurgency": 54917,
    ".CSS": 83684,
    "ĠpÅĻest": 108395,
    "uet": 14127,
    "xBA": 89583,
    "ĠÃ¼l": 102691,
    "Ġsockaddr": 25143,
    "Ġdecor": 10799,
    "_reward": 39360,
    "Ġbelirlen": 126445,
    "ÙĩÙĨ": 108241,
    "_installed": 80165,
    "_putchar": 59069,
    "m": 76,
    "ove": 1009,
    "ĭ": 233,
    "ĠSandbox": 97960,
    "ĠjednÃ¡": 121796,
    "pose": 2972,
    "//------------------------------------------------": 31989,
    "ĠdÃ¡v": 111836,
    "ĠVig": 58201,
    ".any": 30415,
    "lÃ¡": 101068,
    "someone": 90579,
    "ĠvidÃ©": 40738,
    "ownik": 73832,
    "çİ²": 119944,
    "ecake": 79356,
    "ĠIslands": 23028,
    "ĉĉĉĉĉĉĉĉĉĉĉ": 10389,
    "Ġproximity": 37843,
    "ahoma": 28940,
    "Ġáº¢nh": 126790,
    "bcrypt": 66598,
    "<|reserved_special_token_171|>": 128179,
    "ĠsessionFactory": 71576,
    "Ġgrew": 14264,
    "Ġkaliteli": 127936,
    "é¡¶": 109127,
    "ĠWebSocket": 48142,
    "ĠbaÄŁlantÄ±lar": 111617,
    "Ð»Ð°Ð½Ð´": 116224,
    "ĠCanadian": 12152,
    "æĻ´": 116366,
    "Ġpháº£i": 101058,
    "_J": 10821,
    "_TRI": 42383,
    "ĠÑħÐ¾ÑĤÑı": 113152,
    "illage": 48164,
    "Ġdebunk": 78293,
    "anon": 60010,
    "Pref": 31078,
    ".TextBox": 10897,
    "à¸¢": 35609,
    "ĠCrushing": 41494,
    "ĠIG": 47280,
    "QP": 67620,
    "ĠHey": 28653,
    "Clock": 27196,
    "ĠDix": 76243,
    "percentage": 41650,
    ".caption": 86201,
    ",input": 55444,
    "ĠÎµÏħ": 107574,
    "Ð¾Ð±ÑħÐ¾Ð´Ð¸Ð¼": 89159,
    "ç§Ģ": 106241,
    "ĠÐ²Ð¾Ð½Ð¸": 103953,
    "ĠÙĦØº": 122859,
    "ÑĨÑĥ": 110800,
    "ĠìķĬ": 51796,
    "ç¤¾": 61337,
    "xAA": 61151,
    "_Component": 81860,
    "ponsored": 35841,
    "Ġcharging": 23468,
    "adioButton": 17700,
    "working": 21837,
    "Ġmanipulating": 63614,
    "());Ċ": 1449,
    "Ġ\"></": 85843,
    "QRST": 71692,
    "Ġstereotypes": 54168,
    ".setter": 47694,
    "iplina": 83821,
    "Ġdraggable": 75656,
    "Ġadjacency": 74949,
    "Ġpick": 3820,
    "ĠIService": 66825,
    "Ġunited": 29292,
    "DETAIL": 86899,
    "racÃŃ": 120872,
    "parents": 26534,
    "ĠìĹĶ": 117878,
    "nictvÃŃm": 117471,
    "Ġflattened": 68461,
    "bef": 58747,
    "EN": 965,
    ".UserId": 38578,
    "(constants": 81468,
    "Ġport": 2700,
    "Ġminced": 94927,
    "Ġrenew": 14195,
    "ĠRockets": 62000,
    "Ġversch": 48808,
    "_mB": 95765,
    "Ġnarrowing": 98867,
    "ĠNSMutableArray": 34368,
    "]').": 37752,
    "Craig": 87376,
    "à¹Ĥà¸Ħà¸£à¸ĩà¸ģà¸²à¸£": 115159,
    ".textField": 82581,
    "ìĦľëĬĶ": 118135,
    "ĠmÃ´": 105158,
    "Ġsurgeon": 46098,
    "$o": 76575,
    "heiten": 90349,
    "Wilson": 92493,
    "Ã¶tt": 87864,
    ".Disabled": 90676,
    "-categories": 96199,
    "thermal": 69218,
    ".SelectSingleNode": 83525,
    "rors": 32786,
    "æĸ°èģŀ": 116491,
    ",K": 44754,
    "/csv": 93228,
    "Soap": 96631,
    "_EQUAL": 18681,
    "ntag": 96005,
    "Ġ<>": 14729,
    "le": 273,
    "avorites": 30479,
    "ĠNon": 11842,
    "ĠReq": 83558,
    "Ġdisagreed": 71803,
    "Ġfilmmaker": 57337,
    "Ġlift": 12157,
    "ĠÐ¾Ð±Ð¾": 123193,
    "ãĢįï¼Į": 118084,
    "Ġor": 477,
    "Ġç¾İ": 105913,
    ":black": 71786,
    "Entropy": 98682,
    "ĠClaire": 43675,
    "ĠRemed": 97970,
    "_was": 92712,
    ".this": 11127,
    "Â»,": 61312,
    "ÐºÐ¾Ð³Ð¾": 102014,
    "à¹Ģà¸ģà¸©à¸ķà¸£": 127755,
    "gew": 38385,
    "Ġobsessed": 44898,
    "ØªØ§Ø¨": 101892,
    "ider": 1814,
    "';Ċ": 1025,
    "says": 98036,
    "Ġputa": 76490,
    "oncÃ©": 95710,
    "PERSON": 94283,
    "\":[": 9075,
    "ropped": 42816,
    "ĠEthan": 63264,
    "Ġperhaps": 8530,
    "Ġincap": 40968,
    "non": 6414,
    "disk": 31596,
    "ĠTitan": 28547,
    "Ġinternship": 60859,
    "ĠÅŁimdi": 114231,
    "ĠHockey": 41342,
    "etween": 10259,
    "rostÅĻed": 127025,
    ".Last": 25709,
    "ĠCambodia": 62138,
    "Having": 29132,
    "blem": 10329,
    "OO": 20066,
    "Ġautomobile": 35528,
    "ĠMars": 21725,
    "_mu": 44621,
    "Ġhom": 5105,
    "ĠÑĤÐ¸Ð¼": 107886,
    "ÑįÐ¹": 125421,
    ".getText": 10220,
    "835": 23424,
    "ĠBloomberg": 37653,
    "adr": 15008,
    "ĠÐ´Ð²Ð¸Ð¶ÐµÐ½Ð¸Ñı": 121585,
    "(Android": 78476,
    "Ġbip": 29978,
    "ĠBOARD": 52453,
    "Ġinve": 93284,
    "_POS": 18818,
    "ometers": 33504,
    "ientras": 50992,
    "çļ": 9444,
    "á»Ļn": 111322,
    "ìĹĶ": 108733,
    "_available": 28060,
    "ĠChloe": 60470,
    "Ġrushing": 38117,
    "ĠìĽĢì§ģ": 126256,
    "Ġsalud": 59112,
    "-backend": 91087,
    "ĠBeast": 34282,
    "Ġcongreg": 77415,
    "Ġencontr": 23363,
    "averse": 23247,
    "Alright": 72586,
    "(of": 28125,
    "ĠIA": 44190,
    "Ġwinger": 74539,
    "à¸¶à¹Ī": 101608,
    "ultural": 44547,
    "ĠRotate": 50820,
    "ĠÑıÐ²": 102020,
    "ĉbuff": 86796,
    "Ġíĳľìĭľ": 125538,
    "ĠIndigenous": 47103,
    "Ġsealed": 19584,
    "Ġvx": 44560,
    "Ġny": 19541,
    "Sorry": 19701,
    "Creates": 55968,
    "(',',$": 94373,
    "cons": 6387,
    "ĠPHONE": 92183,
    "ĠØ¯ÙĩÙĩ": 126324,
    "matcher": 71926,
    "Ġà¸ªà¸ŀ": 116982,
    "Ġinitiated": 33230,
    "Ġkrat": 92114,
    "Ai": 70767,
    "ERY": 13977,
    "-red": 32698,
    "æ¸¯": 103354,
    "skin": 37282,
    "Ġlá»±a": 105440,
    "/',": 14688,
    ">'+Ċ": 43009,
    "skirts": 68075,
    "Welcome": 14262,
    "ĠÅĻadu": 126882,
    "Ġà¹Ģà¸Ľ": 102543,
    "ĠcontrolId": 89632,
    "Ġemotion": 20356,
    "Ġà¸Ļà¸²à¸¢": 112268,
    "ĉAdd": 39072,
    "Australian": 75341,
    "legal": 6564,
    "boys": 30123,
    "ĠPix": 50566,
    ".push": 2615,
    "arra": 80130,
    "Ġzien": 80507,
    "etermin": 16890,
    "ĠÃĩocuk": 119005,
    "Ġsns": 51201,
    "Ġleukemia": 96306,
    "(ExpectedConditions": 98448,
    "ĠCOMMON": 67777,
    "ĠÐ²Ð¾Ð·Ð¼Ð¾Ð¶Ð½Ð¾": 118218,
    "-negative": 62035,
    "ĠIL": 11598,
    "_point": 6213,
    "Third": 38075,
    "ÑĬÐµÐº": 123759,
    "Ø§Ø¦Ø±Ø©": 119358,
    "ì¹ĺ": 60798,
    "ilated": 93583,
    "Ġaccredited": 55325,
    "Ġbaiser": 79782,
    "ĉdiff": 81664,
    "ertext": 38320,
    "Ġvenom": 74808,
    "HandlerContext": 76326,
    "Ġê³łê°Ŀ": 116534,
    "ACTIVE": 40187,
    "achts": 82106,
    "(\"\"\"Ċ": 69860,
    "registro": 56446,
    "away": 14075,
    "esture": 16375,
    "=\\\"/": 99285,
    "HAS": 79330,
    "PointCloud": 59242,
    "})(": 32988,
    "ĉcomponent": 53328,
    "Ð°ÑĢÑĸÐ²": 115313,
    "ï¿½ï¿½": 10178,
    ".environment": 63245,
    "Ġexceptions": 20157,
    "Ġarchitectural": 43563,
    "ller": 56056,
    "odom": 85867,
    "ĉInitialize": 95004,
    "ĠReno": 64518,
    "ĠBike": 38930,
    "_or": 8908,
    "ĠÐ¸Ð½Ð´Ð¸Ð²Ð¸Ð´Ñĥ": 120375,
    "ching": 28075,
    "itizer": 64918,
    "Ġdeciding": 30230,
    "ĠThank": 9930,
    ".UTC": 88169,
    "Ã¡zky": 108491,
    "Ġrightly": 54466,
    "urile": 93448,
    "ãĥŃãĥ¼": 117243,
    "Ġtrial": 9269,
    "ĠYORK": 47404,
    "Ġpeer": 14734,
    "ĠRivers": 36739,
    "Ġ.*": 48509,
    "Ġrapport": 39474,
    "ĠSerialization": 73134,
    "ĠØ·Ø±": 103444,
    "-ring": 77029,
    "è£": 70892,
    "=\"\">": 18762,
    "åĲįçĦ¡ãģĹãģķãĤĵ": 110066,
    "Ġhides": 58704,
    "ISP": 56606,
    "_NATIVE": 56675,
    "ISED": 27556,
    "authenticate": 51160,
    "à¹Īà¸¥à¸°": 118291,
    "Ġinstitutes": 94812,
    "ĠéŁ³": 119399,
    "ĠtÃŃch": 102898,
    "Ã±ana": 88184,
    "Ġryb": 122206,
    "oÃłi": 101145,
    "Ġsampling": 25936,
    "à¸Ĥà¸§": 127158,
    "aving": 2370,
    "aturas": 87629,
    "ĠHob": 37876,
    "Ġluxurious": 43828,
    "Company": 14831,
    "Ġsnow": 12056,
    "Ġsho": 72619,
    "Ġfield": 2115,
    ".Binary": 51083,
    "notation": 11170,
    ".ResponseEntity": 68447,
    "Ġì²¨ë¶ĢíĮĮìĿ¼": 109986,
    "ĠAngry": 78918,
    "monds": 55720,
    "fadeOut": 40719,
    "ĠvÃ½sled": 108903,
    "Ġ|Ċ": 9432,
    "Here": 8586,
    "Ð¸Ñİ": 111423,
    "âĢĶwe": 86319,
    ".Te": 95949,
    "ĉti": 73959,
    "ĠHancock": 81367,
    "ĠShepherd": 59646,
    "ĉCopyright": 60756,
    "ãĢĤä¸Ģ": 115397,
    "sa": 9258,
    "Ġhalf": 4376,
    "Ġrá»§i": 125435,
    "ĠØªÙĩØ±Ø§ÙĨ": 105249,
    "ĠUIT": 20518,
    "UTURE": 88658,
    "Visited": 76595,
    "uppercase": 80982,
    "069": 27325,
    "åħ¨çĲĥ": 117805,
    "_TEX": 85271,
    "Ġtoch": 98798,
    ".ModelForm": 85868,
    "ystery": 96357,
    "ndx": 94356,
    "als": 1147,
    "Ġunpublished": 85317,
    "aty": 51071,
    "Ġturnovers": 81727,
    "ĉSP": 97274,
    "ĠFIRE": 61563,
    "overall": 75555,
    "ĠHandling": 56813,
    "ĠIncome": 33620,
    "exels": 95827,
    "ĠprotoÅ¾e": 105410,
    "ĠOLED": 72052,
    "Ð¸ÑĤÐ¾Ð¼": 121962,
    "Plug": 79112,
    "Ġefficient": 11297,
    "Ġê¸Ģ": 107285,
    "ĠIW": 75636,
    "ĠPhen": 69883,
    "Ġgroom": 40941,
    "stairs": 31234,
    "ĉRTLU": 57779,
    "ĠMoz": 52543,
    "èĩªåĭķ": 115681,
    "[class": 61044,
    "Ġlivestock": 51876,
    "Ġsufferers": 96460,
    "ĠbasÄ±n": 119143,
    "\"),": 4063,
    "Ġsenate": 77470,
    "ĠvÃ¡Å¾": 117685,
    ".'),Ċ": 81381,
    "à¥§à¥": 111963,
    "ĠÐ¾ÑĤÐ²ÐµÑĤ": 93747,
    "Ġkur": 28364,
    "ĠCalendar": 17263,
    "ĠXunit": 60461,
    "LOS": 38658,
    "Ġpledge": 36179,
    "Ġreminded": 31256,
    "(handle": 27503,
    "xb": 8088,
    "ĠArrival": 93198,
    "268": 16332,
    "Ġèİ·åıĸ": 41771,
    "/DTD": 76714,
    "ĠMemorial": 27872,
    "While": 8142,
    "],[-": 95732,
    "ĠÄįÃŃm": 120948,
    ".contains": 8962,
    "visions": 41115,
    "Ġfakat": 114395,
    "ï¼īï¼Į": 49372,
    "ĉbuf": 27496,
    "ackbar": 28791,
    ".sendFile": 72953,
    "_bo": 57113,
    "Ġnotable": 28289,
    "arÄ±": 68228,
    "Dick": 84582,
    "à¹ĩà¸ĩ": 113863,
    "ï¿£ï½Ģ": 123654,
    "Ġcondoms": 79975,
    "Ġsubmit": 9502,
    "Ġplagiarism": 84998,
    "ILI": 82334,
    "ĠDAY": 38788,
    "æıĲé«ĺ": 115890,
    "ĠArlington": 59796,
    "ĠÐ¾Ð¿Ð°Ñģ": 111992,
    "uD": 72972,
    ".shadow": 39606,
    "SMTP": 59298,
    "ĠØ§ÙĦØ®": 101493,
    ".zero": 26932,
    "Ġeyes": 6548,
    "Ð²ÐµÑĢÐ´Ð¶": 109221,
    "Unique": 23657,
    "avel": 3963,
    "íķ": 7459,
    "à¹Ĥà¸Ī": 120675,
    "Ġubic": 63874,
    "(Device": 74516,
    ".Millisecond": 72582,
    ".dataGridViewTextBoxColumn": 48077,
    "ĉmin": 26388,
    "Ġraw": 7257,
    "ĠBaltimore": 24899,
    "urname": 19872,
    "ĠSCALE": 79223,
    "ĠÑģÐ¿Ð¾ÑĢÑĤÐ¸Ð²": 125805,
    "ĠêµŃê°Ģ": 109916,
    "Math": 8991,
    "ĠgÃ¶n": 123872,
    "ĠBombay": 97713,
    "ĠSTANDARD": 77457,
    "Ġbenefits": 7720,
    "[level": 65686,
    "Ġimpossible": 12266,
    "ĠÐ¿ÑĢÐ¸": 37405,
    "_CONF": 30312,
    "-live": 74551,
    "Boom": 95334,
    "say": 37890,
    "\"+\"": 78828,
    "ĠLogged": 58155,
    "Ġsem": 5347,
    "ĉmutex": 43722,
    "Ġä¸Ĭæµ·": 112441,
    "hook": 21543,
    "à¸µà¹ī": 101008,
    "ĠCoordinator": 43424,
    "Ġå¸ĥ": 120817,
    "à¸Ħà¸£à¸ĩ": 107790,
    "'im": 98279,
    "_associ": 59765,
    "ĠRoof": 47449,
    "ĠPortfolio": 47292,
    "_super": 39986,
    "ÙĪØ§Ø¡": 123684,
    "ÐµÐ´Ð¶": 119138,
    "Password": 4981,
    ".empty": 9357,
    "Ŀå§ĭåĮĸ": 52188,
    "ĠRp": 69208,
    "ularity": 30079,
    "ĠFinn": 35162,
    ".tail": 39811,
    "ĠSuperior": 42041,
    "Ġdumpster": 28550,
    "èĩª": 37026,
    "çĲ³": 124512,
    "ĠÐ¿Ð°Ð½": 109273,
    "adors": 67987,
    "Ġpill": 15530,
    "CHAR": 15594,
    "Ú©ÙĦ": 104044,
    "Ġèī": 106717,
    "Ġgigantic": 58973,
    "ĠkÃ¸benhavn": 45180,
    "ĠÙģØ§Ø±Ø³": 123339,
    "]bool": 97536,
    "ĠÃºÄįet": 118595,
    "Translated": 82116,
    "Ġofficially": 19073,
    "mr": 21620,
    "(actor": 66551,
    "Ġxs": 12209,
    "ĠÐ·Ð°Ð±Ð¾Ð»ÐµÐ²Ð°": 105730,
    "ipv": 43776,
    "ĉResultSet": 57731,
    "_match": 10938,
    "ĠDarkness": 54796,
    "buyer": 60407,
    "ĠkarÄ±ÅŁtÄ±r": 126161,
    "ÑģÐ¾Ð½": 107147,
    "âĢĻve": 4070,
    "Ġmum": 39959,
    "ĠÐºÑĢÐ¾Ð²Ð¸": 113686,
    "_APPRO": 76101,
    "_backward": 71577,
    "ĠØªØ±Ú©": 114391,
    "Ġfiles": 3626,
    "_ORIENTATION": 95280,
    "ĠCountries": 54837,
    ".defaultProps": 58878,
    "ĠfindById": 60625,
    "Ġson": 4538,
    "fu": 33721,
    "WebHost": 90675,
    "Ġexists": 6866,
    "Ġheaded": 19946,
    "ĠFG": 49397,
    "ĠJAN": 84587,
    "Ġsoap": 27883,
    "Ġiets": 89433,
    "ĠMainWindow": 24786,
    ".tick": 41423,
    "ĠValor": 62828,
    "Ġsterling": 73037,
    "ĠInstances": 90341,
    "ĠNEW": 16560,
    "ĠØ®": 75415,
    "(settings": 24258,
    "terraform": 62485,
    "Ġpaci": 112139,
    "ãģ«ãģĭ": 112649,
    "EEDED": 86531,
    "inue": 6364,
    "Ġuyg": 102983,
    ".Start": 12372,
    "ĠFacing": 96418,
    ");}": 79478,
    "Ġroses": 61741,
    "Ø±Ø¨Ø¹": 114359,
    "ĠØ¯Ø´": 116437,
    "ocese": 58744,
    "olÃ³g": 61194,
    "ĠSequence": 29971,
    "ĠSolution": 12761,
    "Dup": 86813,
    "Ġprostituer": 41024,
    "_EOF": 90387,
    "ĠByte": 11146,
    "Ġunemployed": 49989,
    "(parsed": 49562,
    "ĠÙħØµ": 101953,
    "ĠÐľÐ¾Ð½": 122669,
    "Ġnackt": 57768,
    "Emp": 29831,
    "SW": 17268,
    "ĠÄĳiá»ĥm": 101643,
    "ÙĨØ³Ø§": 123695,
    "Now": 7184,
    "dfd": 92330,
    "Ġign": 5335,
    "olithic": 66470,
    "ĠØ²ÛĮØ§Ø¯ÛĮ": 114584,
    "ĠVT": 34051,
    "dro": 11513,
    "ãģĽ": 72342,
    "Ġpredictable": 45207,
    "Neg": 48900,
    "ĠHe": 1283,
    "ĠÙĦØ¥": 116420,
    "Ġà¹Ģà¸Ī": 109674,
    "ÑĢÐµÐº": 113023,
    "mu": 15479,
    "Ġbirey": 114283,
    "ITOR": 45656,
    "grupo": 73077,
    "ĠMarseille": 88793,
    "igo": 7992,
    "ĠìĽ¹": 112971,
    "}()ĊĊ": 67916,
    "Ġblob": 24295,
    "ë¨¼": 113624,
    "box": 2054,
    "SQLite": 82872,
    "ToDo": 78097,
    "/arm": 89644,
    "ehler": 58696,
    ".USER": 38271,
    "Ġmanufacturers": 17032,
    "ĠWagner": 52475,
    "Ġgdb": 77053,
    ".\",\"": 48991,
    "ĠÙĬ": 74374,
    "261": 15602,
    "paper": 19716,
    "Ð°ÑĤÑĸ": 121183,
    "Ġaquarium": 62283,
    "Ġlitigation": 39725,
    "owel": 68157,
    "Ġdefaulted": 94089,
    "Ġpanicked": 94110,
    "Ġobese": 50320,
    "_load": 12693,
    "ØªÙĬØ§Ø±": 125724,
    "bob": 48186,
    "biased": 65401,
    "ĠXen": 49329,
    "truth": 59677,
    "(dw": 98442,
    "DMETHOD": 33072,
    "VES": 77864,
    "ysl": 104501,
    "ĠKatrina": 69756,
    "Ġleg": 2531,
    "Ġsep": 21693,
    "ĠbaÅŁÄ±na": 114193,
    "ĠØ±Ø¦": 112420,
    "Ġque": 1744,
    "Ġchiáº¿c": 106669,
    "Ġconcentrates": 99005,
    "ãģĹãĤĩãģĨ": 109954,
    "Ġlou": 29740,
    "ĠmethodName": 48845,
    "EST": 5288,
    "ÙĩÙĩ": 126674,
    "ãĥĲ": 66953,
    "ĠEmployment": 41952,
    "_decision": 91736,
    "Ġvel": 9231,
    "ĠPath": 8092,
    "UILabel": 35377,
    "ä¹±": 108267,
    "IDES": 86914,
    "consume": 85594,
    "}\",Ċ": 25374,
    ".get": 673,
    "Ġlaughs": 49336,
    "%'Ċ": 66961,
    "Ġtemsil": 113118,
    "ĠInterviews": 89172,
    "/native": 76287,
    "ameda": 99171,
    "Ġdiscussing": 25394,
    "âĨĲ": 72958,
    "Ġversatile": 33045,
    "Ġzwischen": 48326,
    "etect": 13478,
    "ĠEducation": 11930,
    "ĠÐĳÐµÑĢ": 111990,
    "ĠØ°ÙĥØ±": 122300,
    "å¾Į": 74482,
    "ĠÐ±Ð°ÑĤÑĮ": 109057,
    "ĠÙ¾Ø²Ø´Ú©ÛĮ": 116269,
    "Ġbaseman": 84403,
    "');\"": 86695,
    "/div": 22787,
    "Ġnelle": 72864,
    "Ġrepositories": 50757,
    "laces": 77688,
    "ĠGDK": 74986,
    "_inv": 20593,
    "Ġweaving": 84709,
    "Ġbelum": 91857,
    "Ġslightly": 10284,
    "Entr": 53148,
    "_attached": 94661,
    "Ġwoke": 39826,
    "Ġfizz": 88079,
    "Ġtransparent": 18300,
    "ãģĶãģĸ": 77121,
    "ĠBounty": 95289,
    "ĠStatement": 22504,
    "Ġgaat": 69145,
    "Ġfaith": 10082,
    "Ġ################################": 55401,
    "ĠQuando": 92766,
    "_box": 10404,
    "_names": 9366,
    "Ġcabel": 96699,
    "Ġsqrt": 18430,
    "NoSuch": 66631,
    "Ġsamostat": 119843,
    "ÑĢÐ°ÑħÐ¾Ð²": 115773,
    "_action": 8090,
    "Ġgusta": 70758,
    "Ġxáº¥u": 122327,
    "ĠØ§ÙĪØª": 125762,
    ".Include": 56628,
    "_MAIL": 66182,
    "ĠLeave": 26257,
    "ĉsprintf": 27532,
    "_WP": 99249,
    "Ġcomforting": 69130,
    "Ð½Ð¸Ð½Ð°": 125182,
    "à¸Ĭà¸Ńà¸ļ": 116440,
    "Ġë§Ī": 96677,
    "qr": 23866,
    "useState": 56770,
    "ÑĢÐµÑĪ": 107642,
    "ĠAmb": 20423,
    "Ġautoload": 81597,
    "Ġekonomik": 113955,
    "osu": 111627,
    "Ø§ÙĬØ§Øª": 106259,
    "ircuit": 38368,
    "iliate": 35950,
    "à¸Ńà¸Ńà¸ģà¹ģà¸ļà¸ļ": 126695,
    "amarin": 31138,
    "Ġcaption": 17703,
    "/>.": 97008,
    "[])": 16170,
    "ĠØ¬Ø§ÙĨ": 106988,
    "Ġëĭ¤ìĸĳíķľ": 118696,
    "Ġwholesalers": 90997,
    "<Image": 47565,
    "_contacts": 65274,
    "Ġdownloaded": 24174,
    "Ġleds": 92072,
    "Ð¾Ð»ÑĮÐºÐ¾": 54570,
    "ĠTimer": 18232,
    "ĠwÃ¤h": 53467,
    "\":Ċ": 4764,
    "ĠOVER": 36564,
    "ĠUSAGE": 90840,
    "_hits": 64932,
    "Ġavent": 91806,
    "ĠpÃŃsem": 127213,
    "iciÃ¡lnÃŃ": 123377,
    "lcd": 69516,
    "Ġcontinent": 32843,
    "WindowState": 98747,
    "rrha": 91595,
    "Å¡nÃŃ": 119860,
    "'].'</": 43436,
    "éĢĻ": 103864,
    "ĠÄĳáº§u": 100906,
    "osome": 32554,
    "Iran": 62819,
    "Ġthan": 1109,
    "frei": 98469,
    ".medium": 85466,
    "åħ¬éĸĭ": 121298,
    "Ġsum": 2694,
    "ĠĠĠĠĠĠĠĠĊ": 1827,
    "ikon": 62714,
    "à¹ĥà¸«": 100626,
    "Reset": 15172,
    "antes": 15844,
    "Ð½ÑĮÐ¾Ð³Ð¾": 106375,
    "ãĤĤãģĨ": 108031,
    "_Source": 49222,
    "Ġactionable": 92178,
    "ĠHALF": 96422,
    "Ġtyping": 20061,
    "enaire": 97820,
    "oop": 48406,
    "ollectors": 30851,
    "Ġcarbon": 12782,
    "Ġgarden": 13863,
    "ĠisLoggedIn": 73118,
    "ĠsearchText": 73608,
    "ĠØ±Ø³": 102382,
    "ìħĺ": 93131,
    "_hyper": 94516,
    "ĠJJ": 71140,
    "ĠÑĤÑĢÐµÐ±Ð¾Ð²Ð°Ð½Ð¸Ñı": 121156,
    "ĠÙĨÙģØ³Ùĩ": 127332,
    "vÃŃ": 100673,
    "ÑģÑĤÐ¸Ñĩ": 111786,
    ".setGeometry": 70834,
    "Ġcommuting": 94950,
    "ĠWichita": 88718,
    "Ġvox": 44839,
    "_click": 19145,
    "à¸±": 24152,
    "Ġlicenses": 21746,
    "ĠìĬ¤íĥĢ": 114833,
    "Ġdá»ħ": 104487,
    "ê¹": 84291,
    "ĠçĨ": 116804,
    "ale": 1604,
    "pmat": 95763,
    "sans": 77858,
    "Ġgeil": 63122,
    "/customer": 71356,
    "å·¥åħ·": 114722,
    "Ġcrest": 73024,
    "indow": 1000,
    "dsp": 95824,
    "utivo": 88676,
    "usement": 43765,
    "Ġcomentario": 83817,
    ".contentOffset": 88203,
    ".Section": 84020,
    "ë£¸": 125766,
    "ĠÎĳÎ³Î³": 126504,
    "ĠLinearLayoutManager": 46951,
    "-shadow": 27964,
    "rq": 53289,
    "Ġresponder": 65134,
    "ãĢĤï¼Į": 38741,
    "Ġmktime": 94149,
    "021": 11592,
    "Ġjong": 64513,
    "ĠSey": 58980,
    "ĠdataList": 59695,
    "ĠTechnical": 27766,
    "_mac": 23647,
    "Ġprey": 37693,
    "_BTN": 59658,
    "Ð±ÑĥÐ´ÑĮ": 113695,
    "itar": 12635,
    "Ġhybrid": 26038,
    "icÃŃch": 112540,
    "amaÃ±o": 63413,
    "Ġnovice": 72645,
    "Ġà¸ªà¸³à¸Ļ": 127562,
    "ĠTurkish": 24666,
    "ĠzvÃŃ": 114510,
    "#\\": 89184,
    "Exists": 15946,
    "portun": 56986,
    "ss": 784,
    "ÙĢÙĢ": 100952,
    "BIND": 92896,
    "outline": 45230,
    "ĉĉĉĉĉĉĉĉĉĉĉĉ": 14007,
    "Ġwhereas": 20444,
    "Ð½ÑĸÑĨÐ¸Ð¿": 121475,
    "Ġê³µê°Ħ": 126060,
    "ĠAK": 31672,
    ".âĢĻâĢĿĊĊ": 88348,
    "ManagedObject": 42155,
    "ĠìĿ¸": 59777,
    "_TD": 96962,
    "ocity": 7605,
    "Ġà¤ªà¤¹à¤ļ": 124028,
    ".ï¼ı": 119231,
    "ĠÐ´ÑĸÑĤÐµÐ¹": 110914,
    "ĠÐ¾Ð±Ð¾ÑĢ": 107648,
    "Ġbroader": 27927,
    "Î¼Î±ÏĦÎ¿ÏĤ": 106601,
    "iez": 74466,
    "ĠReSharper": 53255,
    "Ġoffense": 17193,
    "oy": 2303,
    "Ġà¤īà¤²": 116947,
    "ÐµÐ¼": 10298,
    "Today": 15724,
    "aces": 2492,
    "Writing": 40413,
    "Classes": 20678,
    "\\Carbon": 58346,
    "ÑģÑĤÐ²Ð¾": 100875,
    "Ġcree": 87539,
    "ĠÑģÐ»Ð¸ÑĪÐºÐ¾Ð¼": 114938,
    "è®¡": 38743,
    "ĠIndiana": 22319,
    "Manufact": 80068,
    "Ġrou": 29465,
    "Ġsays": 2795,
    "ĠstdClass": 56387,
    "ASI": 85602,
    "ĠGrand": 10517,
    "Ġdefinitely": 8659,
    "ĠIss": 16314,
    "(fs": 32956,
    "ÑĨÐ¸Ð¾Ð½Ð½ÑĭÐ¹": 125208,
    "EMPL": 17605,
    "ĠtakovÃ©": 118197,
    "Ġunab": 96718,
    "ĠíĻľëıĻ": 114291,
    "Give": 36227,
    "ĠWeld": 61586,
    "Fuel": 71999,
    "_formats": 69451,
    "_Time": 40180,
    "676": 24187,
    "Ġattrib": 17780,
    "346": 18061,
    ".anim": 38636,
    "(scanner": 87091,
    "Ġant": 3276,
    "à¥ģà¤¶": 107377,
    "ĉCHECK": 50497,
    "Ġemlrt": 97312,
    "ĠYes": 7566,
    "ĠÑģÑĤÐ¾Ð»": 105980,
    ".Ma": 94067,
    "Brain": 66177,
    "ĠmalÃ©": 121089,
    "ĠBennett": 39386,
    "ĠØ°Ùĩ": 125075,
    "ĠìķĦìĿ´ëĶĶ": 125998,
    "Li": 46521,
    "ĠÙħØ®Øª": 103637,
    "Ø§ÙģØ©": 105573,
    "(eq": 71009,
    "Ġevt": 12638,
    "ĠÐļÑĥÑĢ": 120560,
    ".Protocol": 55196,
    "telegram": 82769,
    "(Boolean": 41069,
    "ĠConscious": 92752,
    "Ġlogo": 12708,
    "_MED": 98650,
    "nÅ¯": 113650,
    "ĠÐ²Ð¾Ð³": 127581,
    "Ġense": 68061,
    ".getPage": 63163,
    "LARI": 119571,
    "unken": 55029,
    "(integer": 88514,
    "ĠSolo": 36223,
    "Ġdisproportionate": 80153,
    "serter": 91827,
    "INK": 11898,
    "hal": 12130,
    "ĠProtocol": 25590,
    "znam": 104282,
    "Ġlcm": 87179,
    "ados": 5670,
    "Permissions": 24791,
    "Ġnursing": 28456,
    "ĠbuttonText": 88095,
    "_MA": 86411,
    "Ġ(_,": 40564,
    "[vertex": 94584,
    "ÐµÐ²Ð¸Ñĩ": 118549,
    "½Ķëĵľ": 78147,
    "Ġconcludes": 45537,
    "Ġdirectives": 50353,
    "$db": 23968,
    "ĠReyes": 77259,
    ".subscription": 74493,
    "ssh": 26618,
    "Ġfname": 23364,
    "Ġcg": 36840,
    "993": 24242,
    "iterator": 6997,
    "&display": 99074,
    "ĠRestoration": 67925,
    "ĠhÃ´n": 118481,
    ".ad": 11901,
    "facility": 79783,
    "Ġláº¡i": 86952,
    "Giving": 97602,
    "_function": 9353,
    "ĠCPPUNIT": 52626,
    "Ġsave": 3665,
    "Ġvulgar": 74260,
    "lys": 61492,
    "Ġefficiency": 15374,
    "Ġhonour": 34662,
    "ä»ģ": 109639,
    "ĠExaminer": 79346,
    "ĠAppliances": 97433,
    "âĢ¬Ċ": 110412,
    "CppGenericClass": 57260,
    "Ã©ri": 28154,
    "host": 3875,
    "ãĥģãĤ§": 116696,
    "ĠRO": 12076,
    "TEX": 26256,
    "ØµØ¯": 104324,
    "ĠÑĥÑĩÐ°": 102521,
    "=output": 87047,
    "çłĶç©¶": 102473,
    "ĠINLINE": 66686,
    "ĠJAVA": 86660,
    "ĠÄĲiá»ģu": 106104,
    "(di": 56593,
    "Ġdesigning": 30829,
    "_ONLY": 32363,
    "åįģåħ«": 123709,
    "_MALLOC": 87853,
    "life": 14789,
    "è§Ĥ": 103276,
    "ĠRogers": 34467,
    "'};Ċ": 36955,
    "èĻļ": 115534,
    ".getNum": 70063,
    "Ġlivro": 82523,
    "-count": 27678,
    "vote": 30458,
    "ĠADS": 65335,
    "ĠlÃłm": 100724,
    "ĠACC": 26925,
    "holder": 4346,
    "Ġeating": 12459,
    "Ġreality": 8903,
    "ĠDiagnosis": 95452,
    "âĢĿâĢĶ": 63750,
    "igue": 22711,
    "ĠCORS": 91766,
    "ĠHttpClientModule": 54749,
    "è»Ł": 122279,
    ";background": 51054,
    ".offer": 62741,
    "jumlah": 49716,
    "Ø¨Ø§Øª": 103942,
    "Ġdoor": 6134,
    ".isBlank": 63605,
    "(','": 63419,
    "-gun": 76335,
    "VÃ½": 112552,
    "(progress": 63579,
    "ĠBulldogs": 76564,
    "ĠìłķëıĦ": 111297,
    "MESS": 28202,
    "Ġgarments": 67556,
    "brane": 88554,
    "ĠCACHE": 66756,
    "ĠIDEA": 73145,
    "837": 26244,
    "grow": 67318,
    "ffield": 54339,
    "=[]čĊ": 75027,
    "Ġdiver": 37441,
    "Ġdescribed": 7633,
    "ÎĿ": 100579,
    "Ã¤tzlich": 87859,
    "Ġmá»": 100795,
    "ospels": 99098,
    ".zip": 21666,
    "Plane": 35670,
    "lename": 30218,
    "ĠVisibility": 34835,
    "Ġåįĥ": 115728,
    "/archive": 72727,
    "ĠsetImage": 41062,
    "Ġodkazy": 111096,
    "elf": 491,
    ".startTime": 59876,
    "ĠAlo": 95554,
    "552": 21478,
    "Attr": 13675,
    "ĠIEEE": 40135,
    "ĠÑģÐ°Ð¹ÑĤÑĸ": 123799,
    "endars": 88714,
    "çļĦå°ı": 114788,
    "ĠPersistent": 67644,
    "íĳľ": 102260,
    "ĠreÅ¾im": 122458,
    "Ð»Ð°Ð³": 119521,
    "Ġmarkedly": 88101,
    "Ġcarbohydrate": 67732,
    "ĠcatchError": 65034,
    "ĉreply": 87249,
    "ĠPatio": 65086,
    "ĠBattery": 34712,
    "(first": 18465,
    "ĠGuitar": 47759,
    ".kill": 64343,
    "company": 10348,
    "ĠDim": 8289,
    "Ġstruggled": 28214,
    "_reverse": 44377,
    "rze": 55174,
    "Ġgerek": 101124,
    "(in": 6024,
    "sian": 118323,
    "Ġìĺ¥": 127959,
    "(Str": 93184,
    "animated": 20279,
    "ĠÑĤÐ¾Ð³Ð¾": 101689,
    "ĠYorkshire": 51327,
    "(Z": 28955,
    "Ġtomto": 108716,
    "ĠÐ²ÑĢÐµÐ¼": 65811,
    "491": 21824,
    "Ġcontrast": 13168,
    ".nb": 66940,
    "ÑĮÐºÐ¾": 112172,
    "Ġinstruct": 21745,
    "?\"Ċ": 48469,
    "ILD": 31315,
    "enable": 12837,
    "Ð¾Ð³Ð¾Ñİ": 111604,
    "è®Ń": 109632,
    "ĠUA": 46670,
    "ĠìĬ¤íı¬ì¸ł": 126673,
    "Ġë²Ķ": 115483,
    ".detail": 28482,
    "AME": 2797,
    "ê¸°íĥĢ": 118561,
    "ĠIp": 36133,
    "à¤īà¤¨": 123399,
    "(sel": 64553,
    "Ġchants": 88587,
    "Ġrealm": 22651,
    "_print": 10270,
    "tyard": 56636,
    "least": 56371,
    "elere": 109417,
    "cite": 68175,
    "Ġneod": 124627,
    "èĬ±": 102185,
    ".ball": 76308,
    "ï¼¾": 68230,
    "ĠDISCLAIMS": 84406,
    "ĠTy": 14221,
    "ĠDisqus": 81851,
    "Ġdifficile": 77411,
    "Ġgroundwater": 72329,
    ".Desc": 69528,
    "Ġfick": 50303,
    "Ġspecialist": 24687,
    "Ġsona": 124340,
    "agr": 69405,
    "Ġini": 17225,
    "Ġfelon": 81014,
    "ĠMonica": 46844,
    "Ġboosting": 56028,
    "ÏĦÎ¹Ïĥ": 116473,
    "Ġpodium": 59136,
    "Ġfilthy": 78442,
    "@a": 90317,
    "-West": 61861,
    "_archive": 43973,
    "Signup": 57346,
    "Ġà¤ĸà¤¡": 123949,
    "Ã©": 978,
    "Dirs": 98484,
    "wich": 17316,
    "Cong": 31521,
    "zÄĻ": 60705,
    "ĠDress": 29318,
    "ĠãĢľ": 127935,
    "ĠLouis": 12140,
    "_img": 9095,
    "ÏĦÎ¿ÏħÏĤ": 110485,
    "ĠÃ§ift": 114537,
    "-authored": 96471,
    "ĠPhD": 30661,
    "Ġrins": 97139,
    "Ġcharter": 38124,
    "Ġmongodb": 78564,
    "HY": 49952,
    "Ġffi": 78056,
    "}'.": 24398,
    "ĉimport": 22682,
    "èĸĦ": 116213,
    "Ġestimator": 68398,
    "ĠØ®ÛĮØ§Ø¨Ø§ÙĨ": 124672,
    "/logout": 57197,
    "Ġtide": 43038,
    "wins": 87152,
    "ĠÏĨÏī": 115368,
    "Ġà¸ģà¸²à¸£": 102134,
    "-prop": 77671,
    ".par": 34377,
    "ĠIndustries": 37528,
    "_Get": 13928,
    "ĠFut": 43647,
    "topics": 56252,
    "BaseContext": 94924,
    "Harness": 75348,
    "ajes": 36550,
    "mention": 30348,
    "_st": 1284,
    "ĉADD": 92315,
    "Ð¾Ð±": 14082,
    "ĠEtsy": 65629,
    "uae": 76617,
    "ĠÑģÐ¾ÑģÑĤÐ¾ÑıÐ½Ð¸Ñı": 121317,
    "Ð¸ÑĤÐµÐ»Ñı": 106271,
    "<s": 45147,
    "cede": 95974,
    "åįĹçľģ": 118583,
    "Ġcivilians": 29536,
    "tx": 4086,
    "Ġfallout": 65252,
    "Ġforget": 10894,
    "-yellow": 74012,
    "ì´": 108220,
    "ĠìĿ¸ìłķ": 127507,
    "Phones": 64187,
    "ĠåĬ": 55699,
    "panic": 19621,
    "ÙĦÙĬÙĦ": 110864,
    ".Graphics": 10627,
    "Ġautos": 47972,
    "ĠØ¹ÙĦÙħÛĮ": 111982,
    "ĠPittsburgh": 28627,
    ".com": 916,
    "Ġtimestep": 75678,
    "enemy": 28928,
    "BigInteger": 54319,
    "Consum": 43066,
    "ĠWorld": 4435,
    "ceu": 82230,
    "Anything": 78403,
    ",'\\": 74250,
    "Ġlesbische": 98954,
    "ĉArrayList": 33358,
    "Ġinfinite": 24746,
    "Ġoperand": 28312,
    "Ġtwink": 97500,
    "_negative": 54965,
    "Ġuuid": 16425,
    "ĠÐ¿ÑĢÐ¾Ð´Ð¾Ð²Ð¶": 122709,
    "_sin": 79810,
    "ĠCarr": 30474,
    "ĠNigerian": 55433,
    "Ġresilience": 56062,
    "\");": 5146,
    "Ġnuisance": 77741,
    "-book": 34740,
    "Wrapper": 11803,
    "Ġwavelengths": 93959,
    "Ġroyalties": 85974,
    "Ġåĵģ": 123008,
    "Ġnoble": 35482,
    "Ð»Ð°Ð½": 106148,
    "ÐµÑģÑĤÐ²Ð¾": 52744,
    "_master": 25601,
    "Ġmonde": 38900,
    "Ġstorytelling": 48929,
    "Ġ$_": 3401,
    "ĠkullanÄ±": 109934,
    "Vertex": 8484,
    "Ġn": 308,
    "itating": 50644,
    "Ġpokud": 106381,
    "ĠÐ±Ð°Ð½": 104235,
    "selection": 24536,
    "Ġsecured": 27528,
    "CEO": 79596,
    "instead": 65937,
    "-names": 90144,
    "ĠRenderer": 42467,
    "à¸±à¸ļà¸Ĺ": 110419,
    "816": 23713,
    "dives": 91614,
    "PLUS": 62678,
    "ĠPreserve": 82406,
    "ĉn": 9215,
    "MAND": 26003,
    "Ġifdef": 70071,
    "anges": 5637,
    "Ġgratuit": 11636,
    "ĠAlbuquerque": 76912,
    "Ġuygulam": 106535,
    "Ġanger": 19788,
    "_grade": 51615,
    "ĠÐ²Ð·Ñı": 121630,
    "uely": 67510,
    "Ġaltern": 7064,
    "(':')[": 92628,
    "ĠDoesn": 49932,
    "Ø§Ú¯Ø±": 114908,
    "Ġvolcan": 36373,
    "-fold": 24325,
    "Ġefter": 47580,
    "ĠEre": 96113,
    "Ġebooks": 89002,
    "Ø§Ù¾ÛĮÙħ": 121149,
    "Ġlame": 61983,
    "ĠCarlo": 58870,
    "Ġsalvation": 46035,
    "=BitConverter": 80408,
    "ĠDrink": 48573,
    "ĠCompute": 23426,
    "arga": 18405,
    "employees": 35639,
    "Ġpopulation": 7187,
    "ĠBlockly": 83018,
    ".navigateByUrl": 96432,
    "elsea": 24159,
    "à¥Ĥà¤ľ": 107440,
    "ĠsetTimeout": 14593,
    "Ã¶rper": 76124,
    "ĠIllegalAccessException": 89880,
    "Arr": 9014,
    "ë¦¬ë¡ľ": 124146,
    "Ġaimed": 20034,
    "Ġì²¨ë¶Ģ": 108717,
    "è¨Ī": 82420,
    "ĠÑģÐ¿Ð°Ñģ": 125474,
    "=os": 51964,
    "abor": 4422,
    "kad": 94375,
    "_security": 49826,
    "ĠMouseEventArgs": 83004,
    "Ġtiá»ĩn": 106352,
    "volution": 65272,
    "Ġgf": 42988,
    ")t": 79205,
    "Ġij": 72961,
    "utable": 6047,
    "Yellow": 48799,
    "ĠDid": 14910,
    "ĠÐŁÑĢÐ¸": 101536,
    "ĠÑĤÐ¾Ð³Ð´Ð°": 112057,
    "VML": 49604,
    "ĠAff": 9947,
    "ĠNYPD": 74255,
    "criptor": 6963,
    "Ġplaying": 5737,
    "isclosed": 74790,
    "Ġíķĺë£¨": 123106,
    "ØŃÙĦ": 126663,
    "/head": 55412,
    "Ð¶ÐµÐ½Ð½Ñı": 102642,
    "ÑĩÐ½Ð¾Ð³Ð¾": 108734,
    "ĠTIMESTAMP": 93692,
    "ĠTLC": 91582,
    "ĠTre": 12758,
    "aternity": 65143,
    "Ð¿ÑĢÐ¸Ð¼ÐµÑĢ": 112978,
    "æī¬": 121616,
    "ĠBoots": 46568,
    "Ġëª¸ìĿĦ": 127236,
    "igInteger": 49050,
    "Ġdecode": 17322,
    "pered": 43868,
    "ĠRabbit": 49431,
    ".getHours": 57255,
    "Ġchorus": 56910,
    "ĠÚ©Ùħ": 103239,
    "REQUIRED": 90915,
    "Ð°Ð»Ðµ": 107103,
    "`](": 85802,
    ".RequestBody": 73196,
    "åĢĳ": 106310,
    "roof": 76736,
    ".tableLayoutPanel": 22937,
    "ÐµÑĢÑĤÐ²": 121997,
    "à¸²à¸Ħà¸¡": 102344,
    "à¸±à¸įà¸į": 109552,
    "ceipt": 25101,
    ".ModelAdmin": 69219,
    "Ġsalario": 94191,
    "=D": 49734,
    "ingham": 24125,
    "ĠCGI": 64527,
    "ĠNatasha": 87766,
    "ÑĤÑĥÑĢÐ°": 123990,
    "ĠPJ": 66080,
    "Ġjedoch": 61737,
    "ĠsoÄŁuk": 124508,
    "hibition": 60073,
    "954": 25741,
    "Handle": 7144,
    "nesota": 17891,
    "Ġlived": 12439,
    "ĠÑģÐ¸ÑĤÑĥÐ°ÑĨÐ¸Ð¸": 125925,
    "ĠÚ©ÙĪÙĩ": 123850,
    "ĠWebView": 70651,
    "ĠDetailed": 63765,
    "ĠErotik": 84262,
    "-animate": 82450,
    "HELL": 69658,
    "created": 7266,
    "ĠMd": 54210,
    "ĠPSI": 89278,
    "etchup": 91997,
    "how": 5269,
    "å¯Ħ": 108385,
    "ÌĤ": 118739,
    "\\\">Ċ": 35921,
    "getRequest": 40497,
    "Ġeighty": 80679,
    "Ġtits": 30682,
    ".FragmentManager": 98155,
    "_items": 12408,
    "<|reserved_special_token_94|>": 128102,
    ",q": 36280,
    "ĠÙĬÙĤ": 107538,
    "æĿ¯": 109247,
    "Ġyerde": 114004,
    "toggle": 18173,
    "ĠPulse": 50349,
    "à¸±à¸ĩà¸«à¸§": 107250,
    "]],": 21128,
    "ĠÎ¼Î±Î¶Î¯": 122638,
    "Ġpropia": 98429,
    ".DAO": 93889,
    "è¡Į": 23039,
    "Ġadvocacy": 35954,
    "ĠiÃ§inde": 102851,
    "requested": 68205,
    ":w": 53982,
    ".Substring": 26258,
    "agu": 47820,
    "ĠTMP": 67353,
    "Ġavanz": 99392,
    "group": 4166,
    "<I": 13635,
    "Ġkarena": 60569,
    "'])){Ċ": 26027,
    "ĠROC": 98926,
    "ä¸¡": 110176,
    "Ġsteer": 49715,
    "Ġcolum": 94325,
    "Ġlay": 11203,
    "Ġtrusting": 69344,
    "Ġurls": 31084,
    "events": 12670,
    "_tot": 37238,
    "ÑĥÐ¼Ñĥ": 122247,
    "ï¼´": 120915,
    "Ġcarving": 77791,
    "issen": 38064,
    "Ġspecified": 5300,
    "Ð¿ÐµÐºÐ¸": 119000,
    "Ġyas": 106989,
    "ĠPou": 90123,
    "Examples": 41481,
    "ITA": 64286,
    "ĠlÃ¡": 54738,
    "ĠvÃŃc": 113151,
    "=X": 62445,
    "Ġloneliness": 75040,
    "Ġsondern": 52390,
    "ãĥĩãĥ«": 117429,
    "ìłķìĿ´": 122436,
    ".heading": 69458,
    "scenario": 62522,
    "Ġfatal": 19094,
    "<|reserved_special_token_24|>": 128032,
    "Te": 6777,
    "(\"&": 35966,
    "Ġrá»Ļng": 106513,
    "ĠÙħØŃØ§ÙģØ¸": 117852,
    "ĠÐĴÐ»Ð°Ð´Ð¸": 119512,
    "forall": 34729,
    "ĠPolly": 94517,
    "Ġdiscreet": 62504,
    "voÅĻÃŃ": 115987,
    "ĠChanel": 91472,
    "ĠÙħØ¯ÛĮØ±ÛĮØª": 108139,
    "('/')": 48829,
    "manuel": 37264,
    "Ġkaynak": 106706,
    "ĉparser": 56904,
    "Ġbowling": 59296,
    "rapper": 5635,
    "ĠBron": 20407,
    "Ġrecipes": 19141,
    "Ã¢y": 100520,
    "Ġengraved": 80810,
    "Ġteas": 30668,
    "ĠESPN": 27290,
    "Ġprove": 12391,
    "ĠyapÄ±yor": 124090,
    "Ø§ØªÙĩ": 122736,
    "ĠÚĨÙĩ": 102929,
    "uman": 7282,
    "ëĮĢìĿĺ": 123094,
    "/components": 20876,
    "istorical": 96798,
    "ĠÙĬÙĥÙĪÙĨ": 111564,
    "connecting": 91911,
    "esiz": 121398,
    "(\"\").": 81921,
    "ëĲĺì§Ģ": 119222,
    "ĠSoci": 42509,
    "per": 716,
    "Ġcalcul": 5935,
    "ĠNotFoundException": 67746,
    ".mode": 23841,
    ".depend": 60334,
    "_UTF": 56161,
    "Ġmutated": 85922,
    "ĠÅ¼": 47153,
    "Ġtendencies": 61555,
    "<String": 3548,
    "æİĴåĲį": 125699,
    "ĠCurtis": 51816,
    "Ġcampus": 15679,
    "ÃŃculo": 49591,
    "phase": 26199,
    "(code": 16221,
    "(env": 17409,
    "ĠÑĦÐ°ÐºÑĤÐ¸": 118780,
    "onaut": 37164,
    "Ġtá»ĳc": 110256,
    "ĉdiv": 64378,
    "Ġblamed": 36197,
    "ĠFields": 25599,
    "èİ·": 106366,
    "_fu": 37567,
    "ĠgÃ¶rmek": 124459,
    "James": 29184,
    "Ġani": 53088,
    "×Ĳ": 59610,
    "xfb": 47171,
    "unitOfWork": 74216,
    "Ð½ÑĥÑĤÑĮÑģÑı": 126077,
    "ãĤģ": 62004,
    "ĠbyÅĤ": 82735,
    "VAL": 5711,
    "_sec": 17687,
    "ĠGraduate": 44825,
    "_members": 31497,
    "è¿ĩåİ»": 114888,
    "Ġwrestler": 83162,
    ".super": 50121,
    "Ġnavegador": 96510,
    "Ġinterchangeable": 91229,
    "HOME": 28646,
    "sole": 1575,
    "Ġagon": 57770,
    "Ġattribute": 7180,
    "zzarella": 96982,
    "Echo": 76094,
    "ĠÐ´ÐµÑıÑĤÐµÐ»ÑĮ": 108035,
    "(face": 58250,
    "Ġreactors": 71573,
    "_stats": 15743,
    "_INTERVAL": 38453,
    "_scaled": 62815,
    "Ġ$čĊ": 96984,
    "Thus": 45600,
    "ĠVictorian": 44277,
    "Ġà¸ĩ": 121902,
    "Strength": 53957,
    "ÑĩÐºÐ¸": 120058,
    "ĠGee": 96697,
    "__.": 19247,
    "hattan": 26405,
    "ĠConfigure": 22958,
    "Ġyesterday": 13985,
    "304": 12166,
    "æĬĢèĥ½": 118552,
    "ĠKart": 61197,
    "Ġdurumu": 113086,
    "cycl": 98584,
    "Ġfinger": 14654,
    "ĠBITS": 92249,
    "_ls": 54274,
    "Ġ==>": 33396,
    "Ġarte": 52448,
    "Ġundergo": 37771,
    "Ġæ°´": 107732,
    "Ġkeyed": 91629,
    "(application": 41301,
    "dtype": 48827,
    "%\"),Ċ": 81841,
    "'])[": 68801,
    "'user": 65496,
    "ãĤŀ": 112989,
    "esseract": 83638,
    "Ġcultured": 89948,
    "ĠÐºÐ½Ð¸Ð¶": 121336,
    ".GetAll": 46832,
    "Franc": 81428,
    ".separator": 36948,
    "ks": 2857,
    "()->": 2828,
    "rink": 35465,
    "Ø§ÙģØªÙĩ": 114432,
    "Ġmustard": 65407,
    "à¸Ľà¸ı": 110248,
    "ĠMisc": 40151,
    "977": 26409,
    "Ġ},": 2529,
    "Ġï¾į": 116824,
    "Ġshack": 77390,
    "_delta": 27808,
    "multiple": 36773,
    "ĠuÅ¾": 101754,
    ".exc": 65828,
    "ĠTarihi": 122188,
    "_Def": 89511,
    "ĠÐ±ÑĥÐ´ÑĸÐ²": 111718,
    "ĠArc": 20267,
    "Ġleagues": 39459,
    "Ġargues": 29633,
    ",i": 11538,
    "Ġjich": 124719,
    "ĠÐ¿ÐµÐ½Ñģ": 127597,
    "Ġcompeting": 27260,
    "_COUNTRY": 95105,
    "_OID": 97384,
    ".used": 84302,
    "à¥¤ĊĊ": 127420,
    "undos": 65954,
    "ĠØ´Ø¯": 101099,
    "Ġup": 709,
    "ĠÑįÑĤÐ¾Ð³Ð¾": 103117,
    "ĠIonic": 40674,
    "outube": 10432,
    "Ġnegativity": 93795,
    "problems": 96440,
    "ĠÐ²ÑĭÐ²Ð¾Ð´": 85394,
    "ĠÐ¿ÑģÐ¸Ñħ": 106970,
    "ArrayOf": 63756,
    "ĠSGD": 95083,
    "ĠgÃ©n": 78422,
    ".Mar": 84791,
    "pleted": 11274,
    "Ġperse": 55250,
    "features": 20922,
    "-shell": 75962,
    "Ġvede": 122790,
    "tej": 121166,
    "Ġelek": 63888,
    "_audit": 85537,
    "see": 4151,
    "ĠFloors": 97505,
    "ĠTanks": 83881,
    "iÃªng": 105419,
    "ĠWeiter": 74098,
    ".delegate": 19900,
    ".setTitle": 24782,
    "503": 17735,
    "ĠCater": 61236,
    "Ġåŀ": 124066,
    "Ġcomprise": 54350,
    "-prof": 93408,
    "ĠmÃ¶glich": 51937,
    "Ġobservers": 37643,
    "Ð¸ÑĤÐµÐ»ÑĮÑģÑĤÐ²Ð°": 125322,
    "ĠFormData": 47693,
    "SupportedException": 54697,
    ";s": 40514,
    "<div": 2691,
    "ĠCLLocationCoordinate": 98463,
    "dÃ¼": 102234,
    "ÃŃda": 92816,
    "Ġeurope": 38634,
    "åĮ»åŃ¦": 126784,
    "ĠÃ§Ã¶zÃ¼m": 112812,
    "_TEXTURE": 17651,
    "yre": 72540,
    "ĠBG": 44111,
    "ĠJSONObject": 18365,
    "gs": 5981,
    ".IP": 48017,
    "ÄŁinin": 114764,
    "Ġ(__": 23374,
    ".ndim": 82039,
    "Ġrevise": 65836,
    "Ø¨ÙĬ": 100838,
    "Ġtag": 4877,
    "Ġinsurgents": 88438,
    "Ġdepressed": 42642,
    "olver": 8080,
    "Ġcerr": 27976,
    "ĠÎ´ÎµÎ½": 104054,
    "Ä±yla": 102024,
    "âĢĮØ´ÙĪØ¯": 103877,
    "Ġconcert": 21497,
    "Ø®ÛĮ": 112927,
    "Ġmysql": 10787,
    "ĠKurul": 117599,
    ">ĊĊ": 1363,
    "('\"": 33856,
    "ĠÙĨÛĮØ§Ø²": 109439,
    "ĠSkill": 28582,
    "[]>Ċ": 92927,
    "ĠHalf": 26924,
    "áº¡y": 105277,
    "Ø±ÙĪØ²": 107320,
    "Ġ''){Ċ": 55095,
    "ĠVuex": 89439,
    "ĠFeet": 62289,
    "Ġ++)Ċ": 84632,
    "Ġtaxed": 72515,
    "Workflow": 63868,
    "Ġelsewhere": 18403,
    "438": 20596,
    "ĠUNC": 76355,
    "Ġnostra": 91127,
    "ĠPocket": 46824,
    "ØªØ´": 105559,
    "FormItem": 58659,
    ":ĊĊ": 1473,
    "hof": 76958,
    "ĠìŀĦ": 105813,
    "usk": 33879,
    ".stdout": 25880,
    "Domains": 75813,
    ".springframework": 4118,
    "Ġthumbnail": 29674,
    "Ġá»©ng": 102329,
    "_children": 32306,
    "âĻĢ": 32990,
    "ĠVik": 29476,
    "ĠSupport": 9365,
    "Ġheaters": 82467,
    "Ġreddit": 43274,
    "Ð½Ð¸ÐºÐ¾Ð¼": 105944,
    "ĠJewish": 13653,
    "-Jul": 92279,
    "-reported": 85296,
    "éĤ": 45932,
    "connect": 6595,
    "ĠElseIf": 63323,
    ":NSMakeRange": 91382,
    "ĠSecondly": 72131,
    "ĠEVP": 73858,
    "ãģ¡ãĤĩ": 114867,
    "ÑĮÐµÑĢ": 127700,
    "I": 40,
    "47": 2618,
    "acias": 43542,
    "ĠGitHub": 33195,
    "Ġle": 514,
    "Ġrents": 63090,
    "Protect": 62647,
    "px": 1804,
    "irma": 45111,
    "ĠBASIC": 81148,
    "Ġtwo": 1403,
    "ĠArrayCollection": 99602,
    "Ġdistracting": 82398,
    "316": 15340,
    "Ġsquash": 59576,
    "[name": 11174,
    "Ġjob": 2683,
    "ĠTutor": 81719,
    "?a": 99561,
    "ĠsÄ±ras": 108868,
    "Ġsizes": 12562,
    "zy": 4341,
    ".logs": 82015,
    "Ġcrow": 9460,
    "Ġvictims": 12697,
    "inas": 20718,
    "zb": 26397,
    "/colors": 72393,
    "ĠÑĤÐµÐ¿ÐµÑĢÑĮ": 114303,
    "Play": 9315,
    "ìĺ¬": 108807,
    "esine": 102548,
    "adelphia": 18281,
    ".\";ĊĊ": 59824,
    "Ġthaw": 86478,
    "Ġ$?": 51161,
    "Ġcred": 4281,
    "ĠÐ¿Ð»Ð¾Ñī": 111015,
    ".Num": 40947,
    "ariate": 50759,
    "avir": 113765,
    "isk": 3267,
    "orial": 22676,
    "ÙĩÙĢ": 121800,
    "professional": 66886,
    "ÑĸÑģÐ»Ñı": 103532,
    ".DialogInterface": 72101,
    "Ġquer": 30234,
    "Ġç¢": 127815,
    "coration": 27550,
    "Ġtraveller": 86294,
    "ODO": 4564,
    "Ø¯ÙĬØ«": 110431,
    "ĠíķĦìļĶ": 108289,
    "mae": 117171,
    "ĠQuality": 18410,
    "Ġbá»Łi": 104458,
    "inde": 28074,
    "aintenance": 25577,
    "ĠBiggest": 86621,
    "ĉDictionary": 93191,
    "(Camera": 66845,
    "/bind": 85580,
    "364": 15951,
    "shape": 12510,
    "Ġnháº¹": 112894,
    "tools": 16297,
    "-account": 51082,
    "/photos": 50875,
    "atching": 33024,
    "ĠlÃ£": 104980,
    "ĠGÃ¼ney": 118603,
    "Ġpersonalities": 44908,
    "ĠBaylor": 71147,
    "ĠÐ¾ÑĨÐµÐ½": 115630,
    "thanks": 46593,
    "Ġoperates": 27149,
    "ĠprojectId": 42796,
    "CLUSION": 99769,
    "_qs": 81838,
    "Ġprogression": 33824,
    ":i": 15007,
    "obble": 96950,
    "_wait": 19286,
    "åħ·æľī": 110667,
    "Ġ'\">'": 51546,
    "ĠDop": 97674,
    "ĠdrÅ¾": 127596,
    ".Rows": 11585,
    "ãģĦãģ®": 117714,
    "Ġbst": 71331,
    "_tensors": 92167,
    "âĢĶI": 51757,
    "COLOR": 32043,
    ".drawLine": 69608,
    "ufac": 127495,
    "Introduced": 95782,
    "ĠÑĢÑĥÑĩ": 121544,
    "ĊĊĊ": 1432,
    "ĠRELEASE": 54134,
    "Ġstun": 66528,
    "-independent": 98885,
    "_lim": 59291,
    "ĉfill": 66948,
    "ĠWizards": 58694,
    ")*(": 18201,
    "ĠÐ¿Ð¾Ð»Ð¾Ð²": 114513,
    "ÐµÑĤÑĥ": 104763,
    "xFA": 73168,
    "'LBL": 66330,
    "internet": 86843,
    "ulation": 2987,
    "okia": 28652,
    "ĠBrass": 59129,
    "Ġæĭ": 106536,
    "`}Ċ": 54236,
    "Ļ¨": 31928,
    "Privacy": 48932,
    "uder": 33719,
    "Ġcapacity": 8824,
    "Ġblot": 81982,
    "-camera": 73044,
    "ĠÐĲÐ»ÐµÐºÑģÐ°Ð½Ð´": 112155,
    "_topology": 91334,
    "(answer": 40415,
    "]+\\": 67427,
    "ByUsername": 92619,
    "ĠMunicip": 36803,
    "Ġambition": 45715,
    "Ġgetenv": 56574,
    "ĠÐ·Ð½Ð¸": 114664,
    "ĠWebElement": 40982,
    "altung": 62906,
    "transport": 27543,
    "Ġbá»Ļt": 112660,
    "ĠMississippi": 29538,
    "<thead": 59267,
    "Slim": 88308,
    "Ġsido": 35071,
    "Ġconvoy": 80561,
    "ĠfÃ¼h": 51332,
    "ĠBREAK": 70747,
    "Ġhonor": 16044,
    "retim": 114326,
    "ĠiÃ§i": 122822,
    "Ø·ÙĦÙĤ": 124980,
    "à¸²à¸Ħ": 100764,
    "Prompt": 55715,
    "Ġaid": 12576,
    "odynamic": 61002,
    "ĠÎ±Î´": 125429,
    "Ġrecib": 46369,
    "ĠINVALID": 33369,
    "ÑĨÐ¸Ð¿": 103720,
    "/latest": 34249,
    "/en": 13920,
    "_CACHE": 30238,
    "ĠÐ´Ð½ÐµÐ¹": 109540,
    "lÃ©d": 115734,
    "Ġanxiety": 18547,
    "ÑĤÐ¾Ñĩ": 107984,
    "<|reserved_special_token_146|>": 128154,
    "ĠArtists": 53204,
    "Ġdere": 26344,
    "descriptor": 54232,
    "å¼": 13870,
    "à¸Ĭà¸²à¸§": 113906,
    "ĠGK": 98509,
    "ĠPWM": 37134,
    "(\"-\");Ċ": 95638,
    "Keeping": 72447,
    "ĠwxDefault": 84686,
    "èĳī": 105065,
    "(nx": 75426,
    "_FILE": 8247,
    "Ġproduto": 44770,
    "Delay": 20640,
    "ĠÐºÐ¾Ð½ÑĨÐµÐ½ÑĤÑĢÐ°": 124193,
    "_nl": 82152,
    "ï¿£ï¿£ï¿£ï¿£": 104273,
    ".zoom": 47508,
    "ĠObjectId": 51190,
    "elijk": 33338,
    "Ø§Ø¡": 99819,
    "Ġ\"\\Ċ": 94417,
    "IOD": 34391,
    "Ġappraisal": 79392,
    "MAN": 23111,
    "nect": 2375,
    "Ġmsgstr": 124188,
    "ĠNil": 33374,
    "ĠÐ°Ð´Ð¶Ðµ": 125905,
    "az": 1394,
    "Ãºmer": 22334,
    "ĠØ¹Ø§ÙħÙĦ": 119153,
    "_strings": 34600,
    "ĠIMM": 69493,
    "Ġalgebra": 47976,
    "àµ": 51211,
    "ĠÙĪØºÙĬØ±": 127352,
    "eza": 120394,
    "sak": 111884,
    "-append": 89329,
    "ĠÎłÎ±Î½ÎµÏĢ": 127989,
    "Ġcompetitiveness": 77651,
    "Ġvisualization": 42148,
    "-health": 79505,
    "ĠëıĦìĭľ": 119656,
    "'));Ċ": 6470,
    "aying": 17718,
    "/popper": 49252,
    "bung": 84692,
    "ĠEarth": 9420,
    "Ġasynchronously": 68881,
    "-guid": 84792,
    "Ġroofing": 66525,
    ".LENGTH": 15807,
    "MenuItem": 7733,
    "}>": 13815,
    "Ġcháº¿": 102489,
    ".finish": 41186,
    "ĠsetDescription": 69425,
    "é¾Ħ": 120144,
    ",r": 16262,
    "NSDate": 41616,
    "Ġdelivered": 12886,
    "amespace": 1714,
    ")\")Ċ": 19652,
    "Ġmarketers": 55572,
    "Ġê³¼ìłķ": 125156,
    "ultan": 61193,
    "ĠLAND": 92956,
    "ĠdÃ©c": 35881,
    "akest": 75241,
    "ĠĠĠĠĠĠĠĠĠĠĠĠĠĠĠĠĠĠĠĠĠĠĠĠĠĠĠĠĠĠĠĠĠĠĠĠĠĠĠĠĠĠĠĠĊ": 79093,
    "chimp": 91440,
    "ĠhÃºt": 110644,
    "Ġforecast": 18057,
    "ĠKE": 11337,
    "Ġà¸Ĥà¸Ļà¸²à¸Ķ": 121692,
    "Soft": 31631,
    ".KeyCode": 76687,
    "_done": 25391,
    "_port": 8889,
    "ĠFinite": 94719,
    "ĠgeniÅŁ": 108485,
    "252": 12326,
    "ĠukÃ¡z": 123343,
    "liable": 51430,
    "_translation": 50373,
    "ĠFunc": 18503,
    "ĠSilicone": 99900,
    "pha": 4055,
    "Ġhepat": 58259,
    "_EC": 70610,
    "ĠìķĪ": 96270,
    "hetto": 77342,
    "ĠGotham": 74982,
    "ĠtÆ°": 101821,
    "IZE": 3362,
    "Ġnue": 12118,
    ".ge": 23192,
    "ĠcomponentDidMount": 27838,
    "Ð¾Ð»Ð¾Ð³ÑĸÑı": 121512,
    "Ult": 44584,
    "Ġ{};čĊ": 56222,
    "åł±": 78943,
    "Ġresultant": 84913,
    "Ġhorribly": 77104,
    "à¤¾à¤¨à¤ķ": 105977,
    "Ġstrncpy": 58429,
    "ĠAside": 57194,
    "ï¾Ĭ": 103275,
    "ĠHari": 98545,
    "erals": 17822,
    "Ġdiabetic": 71975,
    "effect": 27153,
    "contres": 75950,
    "Ġbliss": 59045,
    "Ġsomeone": 4423,
    "ĠBitSet": 58327,
    ".InputStreamReader": 57691,
    ".run": 7789,
    "John": 13379,
    "Ġhaber": 59382,
    "PRIMARY": 80874,
    "Ġgoggles": 95090,
    "Op": 7271,
    "ICS": 19645,
    "Ġmileage": 50952,
    "Ġ?>\"></": 51260,
    "Ġprogresses": 68711,
    "-Tr": 89147,
    "Ġparted": 85156,
    "ĠÄįinnost": 122958,
    "ĠÄĳÃ¡ng": 109130,
    "æĪ°": 107937,
    "Ġdestek": 105859,
    "hin": 42657,
    "Ġcharming": 35509,
    "Ġhttps": 3788,
    "ĠCALLBACK": 74393,
    "Ġ&_": 31895,
    "Ġ,": 1174,
    "ï¼īãģ®": 120732,
    "ĠJOIN": 13369,
    "à¸²à¸Īà¸°": 107350,
    "ĠonMouse": 43380,
    "ĠkÃ¨m": 115073,
    "ĠpÅĻe": 115726,
    "_motor": 60889,
    "ĠÐµÐ´Ð¸": 123098,
    "reau": 91049,
    "ÙĲØ¨": 125395,
    "Ġestablish": 5813,
    "Ġthá»": 100382,
    "Sweet": 59522,
    "Ð½Ð°Ð¼": 117945,
    "858": 23805,
    "Ġmisleading": 38309,
    "visejÃŃcÃŃ": 124555,
    "<Message": 53260,
    "ĠBarbar": 91170,
    "ÂłM": 111658,
    "ĠComfort": 44842,
    "Ġfurn": 9626,
    "Ġurg": 61939,
    "ãĥ¬ãĤ¤": 108748,
    "Ġmushrooms": 48251,
    "ĠEssex": 64158,
    "ĠBe": 2893,
    "))):Ċ": 97300,
    "ERIC": 37016,
    "Ġaccount": 2759,
    "ĠÐ¡ÐµÐ²ÐµÑĢ": 126025,
    "Ġplagued": 66402,
    "ĠSecrets": 53179,
    "Ġinfect": 34527,
    "<br": 9668,
    "æ": 162,
    "}\")]Ċ": 45765,
    "ĠzahÃ¡j": 119086,
    "iste": 17194,
    "Ġcontributed": 20162,
    "Ġcháº¥t": 101417,
    "Ã¼cken": 92739,
    "Ġarz": 124372,
    "undra": 79830,
    "Ġdisappearing": 67503,
    "unkt": 44326,
    "079": 27407,
    "(layer": 33685,
    "Ġcasually": 65714,
    "ĠÐºÐ¾": 88515,
    "ĠØ¨Ø§Ø³Øª": 116102,
    "éħĴ": 103882,
    "ĠSesso": 54647,
    "Ġverse": 33487,
    "/dat": 38666,
    "ŀ": 252,
    "_marker": 27363,
    "ĠDelay": 40893,
    "Ġtaxp": 23839,
    "Domin": 72641,
    "dac": 83649,
    "inject": 33233,
    "tpl": 12907,
    "æºĢ": 112624,
    "ĠÐ¿Ð¾ÑįÑĤÐ¾Ð¼Ñĥ": 107826,
    "_PF": 80280,
    "ĠNTN": 79915,
    "oxetine": 91703,
    "mouth": 33780,
    "Ġsupervised": 60089,
    "ã": 159,
    "rada": 102841,
    "ĠMSD": 72495,
    "ĠRGBA": 81054,
    "Ġembell": 72514,
    "ĠCatholics": 51971,
    "ĠContemporary": 48302,
    "Ġadversary": 82499,
    "_prices": 66788,
    "Ġlda": 69231,
    "=test": 54638,
    "reduce": 27369,
    "Ġ%#": 53506,
    "Ġsmart": 7941,
    "mits": 45803,
    "Ġprune": 80626,
    "_nullable": 70843,
    "Ġ]Ċ": 5243,
    "Ġara": 120499,
    "Ġopak": 119787,
    "ĠMerrill": 88783,
    "Dic": 45645,
    "_v": 2325,
    "Ġnovamente": 88019,
    "(g": 3348,
    "ĠMcGregor": 69116,
    "draft": 46097,
    "Ġnuest": 31987,
    "Despite": 20397,
    "Ġpersists": 67145,
    "600": 5067,
    "utors": 9663,
    ".setdefault": 54114,
    "ĠvÅ¯bec": 111811,
    "Ġo": 297,
    "ĠWebGL": 86941,
    "/XML": 49724,
    "Ġcous": 27812,
    "Ġsweat": 28566,
    "à¥ĩà¥¤": 102151,
    "ayi": 112717,
    "WINDOW": 41256,
    "ĠAP": 10314,
    "Ġke": 2004,
    "-headed": 62166,
    "//}}": 93155,
    "ĠPregnancy": 83627,
    "ĠGuns": 60565,
    "_ROT": 63767,
    "swer": 3643,
    "ÎµÏģÎ¹": 101964,
    "aggregate": 60706,
    "petto": 83343,
    "ĠØ§ÙĦÙĨÙĪ": 127498,
    "ĠÐ±Ð¾ÐºÑĥ": 118369,
    "715": 22744,
    "ĠChanged": 47394,
    "à¤¾à¤ļ": 105585,
    "cuda": 35026,
    ".touches": 85771,
    "ÑĪÑĤÐ¾Ð²": 126117,
    "Î±Î¹": 90002,
    "Î¹ÏĥÎ¼": 109357,
    "Ġbaik": 80287,
    "_UNKNOWN": 32646,
    "Ġcached": 21224,
    ".pic": 43196,
    "Ġ})": 6547,
    "Ġscreenshots": 49820,
    "Ġanalytics": 28975,
    "BackingField": 44691,
    "Ġactor": 12360,
    ".GetAsync": 79633,
    "yclic": 66404,
    "ĠNGO": 47886,
    "rones": 32921,
    "-hash": 97270,
    "icl": 88467,
    "Ġdword": 75850,
    "Ġplav": 126406,
    "ĠÎ²Î¬": 117168,
    "Ġwasting": 48897,
    "Ġà¤¹à¤ľ": 114263,
    "'>ĊĊ": 99240,
    "Ã¶h": 85351,
    ".combine": 90390,
    "ĠĠĠĠĠĠĠĠĠĠĠĠĠĠĠĠĠĠĠĠĠĠĠĠĠĠĠĠĠĠĠĠĠĠĠĠĠĠĠĠĠĠĠĠĠ": 13771,
    "ĠdidSelect": 53479,
    "Ġunnecessary": 26225,
    "Spinner": 32181,
    "ĠKurum": 126570,
    "Ġcum": 12454,
    "ipeline": 8966,
    "slave": 53605,
    "ĠPom": 39412,
    "Ġapparel": 55425,
    "ĠØ§Ø³ØªØ±Ø§Øª": 125126,
    "COOKIE": 45896,
    "ĠWM": 24030,
    "eller": 7218,
    "Ġsatisfied": 20097,
    "551": 21860,
    "-Ð·Ð°": 106497,
    "Ġlightly": 34504,
    "ĠgeÃ§ir": 105774,
    "-complete": 75514,
    "hb": 50139,
    ".EXIT": 65323,
    "_ly": 94437,
    "_INCLUDED": 37178,
    "Ġconcerned": 11920,
    "Sets": 31275,
    "ãĤ²": 105621,
    "ç¾İåħĥ": 119645,
    "Ġbuffer": 4240,
    "æ®ĸ": 125131,
    "Ġhavoc": 66592,
    ".re": 1351,
    "omething": 11793,
    "Ġì¶ľëł¥": 62226,
    "Ġpsychic": 50217,
    "/fa": 88662,
    "ÐºÐ»ÑİÑĩ": 52520,
    "Ġdefeating": 54216,
    "Ġì½": 102370,
    ".erase": 26463,
    "literal": 36885,
    "á»©": 59912,
    "ĠÐ²ÐµÑīÐµÑģÑĤÐ²": 121702,
    "ĠCoronavirus": 70920,
    "Mess": 85523,
    "Ġassort": 51034,
    "Ġlavor": 46155,
    "_pl": 6451,
    "iatric": 23336,
    "Ġpercussion": 84849,
    "onica": 65045,
    "ĠVinci": 97866,
    "Ġpipes": 32275,
    "ĠEston": 54423,
    "Ġkicks": 37350,
    "uent": 11942,
    "oshi": 32945,
    "ĠMAL": 89139,
    "ĠĠĠĠĊ": 1084,
    "à¸Ĺ": 36984,
    "represented": 53859,
    "ĉmax": 23359,
    "\">(": 58651,
    "Ġviá»ĩn": 110847,
    "Inicio": 47868,
    "ĠTmax": 66874,
    ".clientWidth": 77872,
    "size": 2190,
    "ValueCollection": 87815,
    ".Format": 10183,
    "Ġtaps": 63070,
    "(@\"%@\",": 71179,
    "Ġsorumlu": 123562,
    "gram": 1549,
    "ĠÐ·Ð´Ð¾ÑĢÐ¾Ð²": 105541,
    "................": 8054,
    "ALLENG": 89174,
    "ï¼£": 117812,
    "à¸µà¸ĭ": 119479,
    "ĵį": 35529,
    "+=": 8664,
    ".multipart": 91707,
    "mode": 8684,
    "ĠÐ¿ÐµÑĢÐ¸Ð¾Ð´": 107305,
    "ynamics": 51248,
    "/Grid": 82796,
    "74": 5728,
    ".setCancelable": 99947,
    "ä½į": 25129,
    "ĠSilence": 69188,
    "ĠWind": 22862,
    "ĠVader": 69509,
    "Ġflooring": 37248,
    "uido": 54176,
    "Ð¾ÑģÑĤÐµÐ¹": 110818,
    "');čĊčĊ": 26525,
    "cmath": 34825,
    ".over": 43099,
    "à¥Įà¤Ł": 126734,
    "Ġconsider": 2980,
    "../../": 2817,
    "åĬª": 115619,
    "ĠÐ°ÑģÐ¿": 120391,
    "ìĪĺ": 24140,
    "Au": 66432,
    "åĲİçļĦ": 121964,
    "ĠgridBagConstraints": 55359,
    "==============Ċ": 41822,
    "Ġà¹Ģà¸Ĭ": 107161,
    "ãģ¾": 17129,
    "ĠGardner": 57729,
    "akistan": 70393,
    "butt": 93896,
    "fails": 60731,
    "ĠNI": 42601,
    "Ġpublicly": 17880,
    "Ġselenium": 37045,
    "Ġwelded": 82161,
    ")ĊĊ": 696,
    "Ġbana": 109488,
    "/templates": 40041,
    "ĠKenny": 49419,
    "Ġimplied": 6259,
    "Ġpricey": 79462,
    "ĠÐ´ÐµÐ²": 109392,
    "Ġmultis": 75837,
    "WithURL": 74200,
    "Ġsegregated": 92398,
    "ĠSask": 49746,
    "ÙĬØ³": 101481,
    ".data": 2245,
    "ĠClick": 9369,
    "à¹Ģà¸Ĥà¸²": 108153,
    "(ĊĊ": 45711,
    ".Language": 58058,
    "Ġì°¬": 127405,
    "Ġanatom": 75893,
    "Ġcambiar": 70820,
    "ĠNIC": 65315,
    "ĠgetObject": 90273,
    "_payload": 33913,
    "abwe": 43531,
    "Ġnaive": 50765,
    "??ĊĊ": 71291,
    "Ġadditional": 5217,
    "çľŁæĺ¯": 116798,
    "<footer": 67179,
    "Ġfire": 4027,
    "wendung": 67771,
    "Ġzemi": 118520,
    "Ġsay": 2019,
    "ierce": 90068,
    "ĠÐ¤ÐµÐ´ÐµÑĢÐ°": 106764,
    ".edit": 13007,
    "/ay": 84658,
    "ÏĦÏį": 122031,
    "/**/*.": 53665,
    "spell": 38755,
    "è¼Ķ": 127938,
    "Ġusado": 98443,
    "ĠMuslim": 10451,
    "ĠdÃ©couvrir": 91727,
    "flutter": 15321,
    "Carbon": 37707,
    "iscrim": 42710,
    "Ġdowngrade": 91457,
    "ĠsÃ¶yley": 116452,
    "ĠaÃºn": 78658,
    "å½±éŁ¿": 117375,
    ".gmail": 73054,
    "éĥŃ": 124397,
    "paginator": 79456,
    "Comment": 10906,
    "GEST": 82857,
    "Ø¹Ø§Ø¯Ø©": 121126,
    "Gun": 65007,
    "èĦĳ": 108851,
    "upertino": 79554,
    "Ġasylum": 33270,
    "Ġeducated": 33142,
    "Ġobserved": 13468,
    "Ġlearns": 47310,
    "ĠÑĢÐ°ÑģÐ¿Ð¾Ð»Ð¾Ð¶": 111750,
    "layouts": 20655,
    "getJSON": 80131,
    "kyt": 105973,
    "assin": 44823,
    "ĠTAR": 75674,
    "ĠÑģÐ¾ÑĨÐ¸": 110659,
    "ĠFeel": 32833,
    "Ġprost": 36321,
    "ĉULONG": 97545,
    "encv": 35484,
    "-Sah": 93214,
    "íķĺê³ł": 101360,
    "ĠÑĨÑĸÑĶÑĹ": 113064,
    ".IO": 8559,
    "ÏĦÎŃÏĤ": 109010,
    "ĠConvenience": 81748,
    "Ġpev": 114907,
    "Ġgrown": 15042,
    "Ġsweetness": 64550,
    "Ġ[--": 74917,
    "Ġê³": 46230,
    "ĠHiá»ĩn": 124722,
    "=>$": 30898,
    "_GET": 12991,
    "ï½¥ï½¥": 89505,
    "Ġfsm": 84238,
    "ĠæĬķç¨¿": 105032,
    "ĠProbability": 87739,
    "ĠOrn": 88939,
    "Ġbroadband": 41925,
    "-errors": 73704,
    "ToolTip": 35845,
    "ÑģÐ¸Ñħ": 105562,
    "ĠÑģÑĤÐ¾ÑĢÐ¾Ð½Ñĭ": 111204,
    "ÑĸÑı": 100709,
    "yon": 26039,
    "(pd": 52523,
    "Ġreasons": 8125,
    "ĠØ§ÙĦØ£ÙĪÙĦ": 106376,
    "Ġsound": 5222,
    "ĠMetal": 19757,
    "ĠVulcan": 94155,
    "ĠHardcore": 60650,
    "Didn": 87619,
    "ebe": 109977,
    "_clients": 57999,
    "Ġè½": 108333,
    "Ġintf": 94806,
    "Ġpleasing": 54799,
    "ç®¡çĲĨåĳĺ": 96557,
    "ica": 3074,
    ".DAL": 56135,
    "_ENTRY": 23489,
    "ĠgetCount": 56038,
    "_album": 54341,
    "ÅĻev": 108692,
    "ĠÚ¯ÙĪÙĨÙĩ": 112019,
    "ĠÐ¿ÑĢÐ¾Ð³ÑĢÐ°Ð¼Ð¼": 94508,
    "Writes": 94738,
    "Ã¤": 2357,
    "ĉĉĉĉĉĠĠĠĠĠĠĠ": 79802,
    ".binary": 61713,
    "Ġrepl": 5911,
    "Ġdoom": 59714,
    ".BAD": 66705,
    "ĠÃ¼zere": 104459,
    "ĠÄįasto": 110605,
    "ĠìķĦë²Ħì§Ģ": 123816,
    "ìĤ¬íķŃ": 115790,
    "ãĢģãģĵãĤĮ": 115847,
    "åĤ³": 109365,
    "æ²Ĵ": 110660,
    "ĠNotificationCenter": 84435,
    "<H": 74685,
    "Ġins": 1672,
    "DATED": 37636,
    "_attrs": 40678,
    "Wed": 27601,
    ".FindGameObjectWithTag": 86395,
    "ĠCbd": 50450,
    "ĠNie": 53383,
    "Ġportrayed": 45877,
    "à¥Ģà¤ľ": 102882,
    ".Child": 29606,
    "_upd": 84650,
    "ruta": 82007,
    "čĊĠĠĠĠĠĠĠĠĠĠĠĠčĊ": 80754,
    ".resp": 91349,
    "Uvs": 91191,
    "ĠConvers": 56496,
    "-q": 52708,
    "ÐµÐ½ÑĮ": 52429,
    "-bottom": 11635,
    "zzle": 50061,
    "Ġbatches": 45892,
    "ĠÑĤÐ¸": 103287,
    "ĉval": 19860,
    "æĽ¼": 112948,
    "ĠCelebration": 75200,
    ".MIN": 38570,
    "spm": 69722,
    "ĠBlake": 31994,
    "ĠSwap": 44949,
    "Ġros": 27282,
    ":white": 51916,
    "_pixel": 30860,
    "_LEAVE": 90841,
    "à¤¿à¤°à¤«": 126156,
    "ĠSuppliers": 48089,
    "ĠWrite": 9842,
    "ĠMeer": 95816,
    "ĠRB": 29074,
    "Ġ:],": 95646,
    "Filled": 77146,
    "(po": 85838,
    "GUID": 42878,
    "onenumber": 74366,
    "ĠÐ£ÐºÑĢÐ°ÑĹÐ½Ñĸ": 109118,
    "Ġteaser": 70653,
    "ĠGirl": 11617,
    "_authenticated": 66013,
    "Ġpushed": 15753,
    "Skipping": 87045,
    "Ġstronghold": 86568,
    "ĠØ§ØŃØªÙħ": 118205,
    "ĠÂ§Â§": 65431,
    "ĠSheikh": 72629,
    "nÃŃmi": 107057,
    "Ġinvoluntary": 91605,
    "FSIZE": 79267,
    ",no": 85298,
    "_cycles": 70070,
    "èµĦäº§": 114637,
    "ĠLIB": 31371,
    "ĠStats": 31027,
    "Ġconfusing": 31715,
    "Ú¯Ø§ÙĨ": 102298,
    "LIGHT": 60686,
    "Sen": 20190,
    "matchCondition": 24926,
    "ï¼Įè¿ĺ": 110235,
    "Ġmingle": 91125,
    "ĠØ§ÙĦÚ©ØªØ±ÙĪÙĨ": 120542,
    "ĠPetite": 88083,
    "_ARCH": 41149,
    "ĠĠĠĠĠ": 415,
    "tutorial": 92882,
    "ĠvÅ¯": 105643,
    "ĉevent": 29402,
    "Ġoutdoors": 34632,
    "_transactions": 69282,
    "stitial": 49270,
    "ĠPra": 41465,
    "Well": 11649,
    "itespace": 37174,
    "ubishi": 63320,
    "Nota": 84026,
    ".firestore": 52099,
    "ÏĥÎ·": 100569,
    "ĠIPC": 46933,
    ".son": 83605,
    "ĠØ¨Ø³ÛĮØ§Ø±": 106836,
    "LEMENT": 18315,
    ".borrow": 84740,
    "à¹ĩà¸Īà¸ŀà¸£à¸°": 123126,
    "ãģ¤ãģ¶": 127849,
    "Radio": 29303,
    ",SIGNAL": 87896,
    "Account": 7516,
    "áº¢": 115788,
    "047": 24970,
    "_OBJ": 28659,
    "ĠBear": 24941,
    "digest": 37439,
    "æ±ł": 107980,
    "Ġetkili": 118000,
    "ĠUtil": 10377,
    "(ln": 96025,
    "Ġnovelty": 67409,
    "Ġpreserved": 34683,
    "ĠDocument": 12051,
    "Ġreleasing": 28965,
    "_oc": 50748,
    "payload": 19992,
    "ĠpenÄĽ": 118070,
    "à¸Īà¸°à¸ķ": 123855,
    "Ġbáº§u": 115270,
    "$pdf": 35310,
    "escape": 13295,
    "iry": 34870,
    "ĠAuthorized": 91669,
    "ĠColo": 96175,
    "ĠNach": 29375,
    "Ġzorun": 119149,
    "ĠÙĦÙĦØŃ": 119838,
    "////////////////////////////////////////////////////////": 62008,
    "why": 35734,
    "ral": 3545,
    "ifar": 94027,
    "Ð¾Ð²Ñĥ": 114176,
    "ank": 1201,
    "ĠSimulation": 44220,
    "ĠWarner": 32780,
    "inda": 17872,
    "Ġadvisor": 37713,
    "ĠsvÃ©ho": 108646,
    "Canadian": 60674,
    "ĠSuriye": 124016,
    "Ġbi": 6160,
    "Ġhned": 115985,
    "ÑĥÑģÐºÐ°": 106598,
    "ĠÐ¿ÐµÑĢÑĪÐ¸Ð¹": 124998,
    "Ġwhore": 73025,
    "vey": 5735,
    "Ú©ÙĪØ±": 115808,
    "Them": 88070,
    "Declared": 60567,
    "supported": 18717,
[...]
